{
  "version": "1.0",
  "truncation": null,
  "padding": null,
  "added_tokens": [
    {
      "id": 0,
      "content": "[PAD]",
      "single_word": false,
      "lstrip": false,
      "rstrip": false,
      "normalized": false,
      "special": true
    },
    {
      "id": 1,
      "content": "[UNK]",
      "single_word": false,
      "lstrip": false,
      "rstrip": false,
      "normalized": false,
      "special": true
    },
    {
      "id": 2,
      "content": "[CLS]",
      "single_word": false,
      "lstrip": false,
      "rstrip": false,
      "normalized": false,
      "special": true
    },
    {
      "id": 3,
      "content": "[SEP]",
      "single_word": false,
      "lstrip": false,
      "rstrip": false,
      "normalized": false,
      "special": true
    },
    {
      "id": 4,
      "content": "[MASK]",
      "single_word": false,
      "lstrip": false,
      "rstrip": false,
      "normalized": false,
      "special": true
    }
  ],
  "normalizer": null,
  "pre_tokenizer": {
    "type": "Whitespace"
  },
  "post_processor": null,
  "decoder": null,
  "model": {
    "type": "BPE",
    "dropout": null,
    "unk_token": null,
    "continuing_subword_prefix": null,
    "end_of_word_suffix": null,
    "fuse_unk": false,
    "byte_fallback": false,
    "ignore_merges": false,
    "vocab": {
      "[PAD]": 0,
      "[UNK]": 1,
      "[CLS]": 2,
      "[SEP]": 3,
      "[MASK]": 4,
      "!": 5,
      "\"": 6,
      "#": 7,
      "$": 8,
      "%": 9,
      "&": 10,
      "'": 11,
      "(": 12,
      ")": 13,
      "*": 14,
      "+": 15,
      ",": 16,
      "-": 17,
      ".": 18,
      "/": 19,
      "0": 20,
      "1": 21,
      "2": 22,
      "3": 23,
      "4": 24,
      "5": 25,
      "6": 26,
      "7": 27,
      "8": 28,
      "9": 29,
      ":": 30,
      ";": 31,
      "<": 32,
      "=": 33,
      ">": 34,
      "?": 35,
      "@": 36,
      "A": 37,
      "B": 38,
      "C": 39,
      "D": 40,
      "E": 41,
      "F": 42,
      "G": 43,
      "H": 44,
      "I": 45,
      "J": 46,
      "K": 47,
      "L": 48,
      "M": 49,
      "N": 50,
      "O": 51,
      "P": 52,
      "Q": 53,
      "R": 54,
      "S": 55,
      "T": 56,
      "U": 57,
      "V": 58,
      "W": 59,
      "X": 60,
      "Y": 61,
      "Z": 62,
      "[": 63,
      "\\": 64,
      "]": 65,
      "^": 66,
      "_": 67,
      "`": 68,
      "a": 69,
      "b": 70,
      "c": 71,
      "d": 72,
      "e": 73,
      "f": 74,
      "g": 75,
      "h": 76,
      "i": 77,
      "j": 78,
      "k": 79,
      "l": 80,
      "m": 81,
      "n": 82,
      "o": 83,
      "p": 84,
      "q": 85,
      "r": 86,
      "s": 87,
      "t": 88,
      "u": 89,
      "v": 90,
      "w": 91,
      "x": 92,
      "y": 93,
      "z": 94,
      "{": 95,
      "|": 96,
      "}": 97,
      "~": 98,
      "§": 99,
      "±": 100,
      "²": 101,
      "µ": 102,
      "×": 103,
      "æ": 104,
      "μ": 105,
      "‑": 106,
      "–": 107,
      "—": 108,
      "’": 109,
      "…": 110,
      "←": 111,
      "→": 112,
      "−": 113,
      "≈": 114,
      "≳": 115,
      "⚠": 116,
      "️": 117,
      "﻿": 118,
      "🌐": 119,
      "🐛": 120,
      "👆": 121,
      "👋": 122,
      "🔥": 123,
      "🙋": 124,
      "🚀": 125,
      "🚫": 126,
      "🤗": 127,
      "in": 128,
      "th": 129,
      "on": 130,
      "er": 131,
      "or": 132,
      "es": 133,
      "al": 134,
      "an": 135,
      "at": 136,
      "re": 137,
      "py": 138,
      "en": 139,
      "is": 140,
      "ed": 141,
      "the": 142,
      "ar": 143,
      "as": 144,
      "le": 145,
      "it": 146,
      "ion": 147,
      "ing": 148,
      "de": 149,
      "ch": 150,
      "ut": 151,
      "and": 152,
      "ct": 153,
      "ro": 154,
      "thon": 155,
      "st": 156,
      "lo": 157,
      "00": 158,
      "un": 159,
      "est": 160,
      "ib": 161,
      "##": 162,
      "se": 163,
      "co": 164,
      "``": 165,
      "ex": 166,
      "^^": 167,
      "il": 168,
      "me": 169,
      "python": 170,
      "--": 171,
      "ra": 172,
      "mp": 173,
      "ers": 174,
      "ad": 175,
      "test": 176,
      "fi": 177,
      "to": 178,
      "ck": 179,
      "all": 180,
      "ent": 181,
      "ul": 182,
      "ce": 183,
      "so": 184,
      "no": 185,
      "ma": 186,
      "pe": 187,
      "con": 188,
      "su": 189,
      "0x": 190,
      "po": 191,
      "for": 192,
      "==": 193,
      "mo": 194,
      "la": 195,
      "Py": 196,
      "int": 197,
      "one": 198,
      "ge": 199,
      "sc": 200,
      "lib": 201,
      "us": 202,
      "um": 203,
      "be": 204,
      "ith": 205,
      "val": 206,
      "ect": 207,
      "16": 208,
      "```": 209,
      "he": 210,
      "tr": 211,
      "ff": 212,
      "ti": 213,
      "###": 214,
      "ur": 215,
      "\",": 216,
      "lin": 217,
      "02": 218,
      "ly": 219,
      "^^^^": 220,
      "do": 221,
      "ve": 222,
      "()": 223,
      "None": 224,
      "sh": 225,
      "~~": 226,
      "di": 227,
      "ation": 228,
      "ht": 229,
      "fa": 230,
      "ate": 231,
      "ab": 232,
      "of": 233,
      "ort": 234,
      "run": 235,
      "ack": 236,
      "ig": 237,
      "..": 238,
      "pos": 239,
      "pro": 240,
      "this": 241,
      "wh": 242,
      "res": 243,
      "ersion": 244,
      "12": 245,
      "call": 246,
      "**": 247,
      "ipy": 248,
      "scipy": 249,
      "bu": 250,
      "ver": 251,
      "with": 252,
      "out": 253,
      "pt": 254,
      "read": 255,
      "64": 256,
      "ca": 257,
      "sa": 258,
      "ze": 259,
      "ft": 260,
      "__": 261,
      "\"/": 262,
      "orch": 263,
      "are": 264,
      "ps": 265,
      "----": 266,
      "num": 267,
      "id": 268,
      "cl": 269,
      "sue": 270,
      "pp": 271,
      "del": 272,
      "ty": 273,
      "torch": 274,
      "wor": 275,
      "ile": 276,
      "vi": 277,
      "not": 278,
      "In": 279,
      "ror": 280,
      "version": 281,
      "use": 282,
      "line": 283,
      "che": 284,
      "0000": 285,
      "ic": 286,
      "exp": 287,
      "issue": 288,
      "fro": 289,
      "from": 290,
      "ha": 291,
      "work": 292,
      "du": 293,
      "qu": 294,
      "loc": 295,
      "ult": 296,
      "ag": 297,
      "ite": 298,
      "imp": 299,
      "put": 300,
      "),": 301,
      "form": 302,
      "atch": 303,
      "ary": 304,
      "test_": 305,
      "202": 306,
      "ens": 307,
      "ist": 308,
      "====": 309,
      "14": 310,
      "andas": 311,
      "model": 312,
      "ject": 313,
      "that": 314,
      "ment": 315,
      "ther": 316,
      "ne": 317,
      "The": 318,
      "sr": 319,
      "ol": 320,
      "Python": 321,
      "fix": 322,
      "cor": 323,
      "src": 324,
      "File": 325,
      "check": 326,
      "10": 327,
      "_Py": 328,
      "15": 329,
      "ho": 330,
      "com": 331,
      "buil": 332,
      "pandas": 333,
      "nal": 334,
      "pr": 335,
      "ces": 336,
      "pi": 337,
      "dex": 338,
      "par": 339,
      "cause": 340,
      "//": 341,
      "`,": 342,
      "main": 343,
      "',": 344,
      "numpy": 345,
      "type": 346,
      "bject": 347,
      "comp": 348,
      "end": 349,
      "13": 350,
      "ke": 351,
      "ret": 352,
      "17": 353,
      "et": 354,
      "cs": 355,
      "ta": 356,
      "its": 357,
      "0x7": 358,
      "://": 359,
      "tps": 360,
      "python3": 361,
      "https": 362,
      "da": 363,
      "ner": 364,
      "ass": 365,
      "2026": 366,
      "~~~~": 367,
      "ray": 368,
      ").": 369,
      "^^^^^^^^": 370,
      "op": 371,
      "ub": 372,
      "file": 373,
      "build": 374,
      "pack": 375,
      "array": 376,
      "ri": 377,
      "ss": 378,
      "ible": 379,
      "Er": 380,
      "_m": 381,
      "f4": 382,
      "inst": 383,
      "cpython": 384,
      "si": 385,
      "import": 386,
      "shi": 387,
      "):": 388,
      "code": 389,
      "get": 390,
      "ue": 391,
      "am": 392,
      "ast": 393,
      "ction": 394,
      "Us": 395,
      "jo": 396,
      "lat": 397,
      "ang": 398,
      "Error": 399,
      "Th": 400,
      "exe": 401,
      "07": 402,
      "ls": 403,
      "f4ff": 404,
      "35": 405,
      "str": 406,
      "19": 407,
      "0x7f4ff": 408,
      "pa": 409,
      "ution": 410,
      "np": 411,
      "per": 412,
      "local": 413,
      "gh": 414,
      "amp": 415,
      "ran": 416,
      "usr": 417,
      "Eval": 418,
      "confi": 419,
      "fail": 420,
      "ed_": 421,
      "0x7f4ff4": 422,
      "100": 423,
      "li": 424,
      "sy": 425,
      "time": 426,
      "urn": 427,
      "ata": 428,
      "ng": 429,
      "Users": 430,
      "ans": 431,
      "env": 432,
      "...": 433,
      "row": 434,
      "sol": 435,
      "ware": 436,
      "inary": 437,
      "arg": 438,
      "return": 439,
      "01": 440,
      "Mo": 441,
      "Re": 442,
      "by": 443,
      "el": 444,
      "site": 445,
      "lain": 446,
      "ages": 447,
      "up": 448,
      "rep": 449,
      "ci": 450,
      "tens": 451,
      "packages": 452,
      "joh": 453,
      "match": 454,
      "ure": 455,
      "ase": 456,
      "low": 457,
      "und": 458,
      "rame": 459,
      "()`": 460,
      "poss": 461,
      "(\"": 462,
      "Anal": 463,
      "other": 464,
      "index": 465,
      "soft": 466,
      "ption": 467,
      "solution": 468,
      "possible": 469,
      "log": 470,
      "sel": 471,
      "Analy": 472,
      "software": 473,
      "back": 474,
      "repos": 475,
      "output": 476,
      "explain": 477,
      "Analyze": 478,
      "set": 479,
      "tra": 480,
      "trans": 481,
      "johng": 482,
      "print": 483,
      "PU": 484,
      "if": 485,
      "self": 486,
      "gen": 487,
      "conda": 488,
      "able": 489,
      "Object": 490,
      "](": 491,
      "core": 492,
      "88": 493,
      "Binary": 494,
      "can": 495,
      "dtype": 496,
      "ot": 497,
      "thread": 498,
      "uld": 499,
      "dis": 500,
      "pect": 501,
      "--------": 502,
      "32": 503,
      "],": 504,
      "ector": 505,
      "gith": 506,
      "has": 507,
      "produ": 508,
      "github": 509,
      "PR": 510,
      "fe": 511,
      "ould": 512,
      "ill": 513,
      "home": 514,
      "transform": 515,
      "ard": 516,
      "col": 517,
      "point": 518,
      "em": 519,
      "`.": 520,
      "iz": 521,
      "wn": 522,
      "have": 523,
      "tensor": 524,
      "ac": 525,
      "ert": 526,
      "ight": 527,
      "20": 528,
      "De": 529,
      "Lib": 530,
      "fin": 531,
      "runner": 532,
      "same": 533,
      "86": 534,
      "Vector": 535,
      "ter": 536,
      "config": 537,
      "transformers": 538,
      "1d": 539,
      "data": 540,
      "fault": 541,
      "This": 542,
      "\")": 543,
      "bb": 544,
      "les": 545,
      "xi": 546,
      "result": 547,
      "fun": 548,
      "om": 549,
      "ug": 550,
      "========": 551,
      "path": 552,
      "gener": 553,
      ">>": 554,
      "_work": 555,
      "rec": 556,
      "asan": 557,
      "av": 558,
      "we": 559,
      "only": 560,
      "ulti": 561,
      "cess": 562,
      "42": 563,
      "_Vector": 564,
      "ame": 565,
      "error": 566,
      "rect": 567,
      "size": 568,
      "ll": 569,
      "nt": 570,
      "ere": 571,
      "load": 572,
      "rais": 573,
      "valu": 574,
      "ffect": 575,
      "cr": 576,
      "does": 577,
      "/.": 578,
      "_p": 579,
      "but": 580,
      "ml": 581,
      "ated": 582,
      "examp": 583,
      "Ex": 584,
      "ive": 585,
      "pixi": 586,
      "Frame": 587,
      "T01": 588,
      "der": 589,
      "f2": 590,
      "list": 591,
      "pd": 592,
      "arm": 593,
      "labe": 594,
      "ument": 595,
      "ign": 596,
      "values": 597,
      "ay": 598,
      "ity": 599,
      "ext": 600,
      "urre": 601,
      "17T01": 602,
      "envs": 603,
      "30": 604,
      "ks": 605,
      "exce": 606,
      "bug": 607,
      "_s": 608,
      "pl": 609,
      "org": 610,
      "open": 611,
      "labels": 612,
      "SI": 613,
      "ap": 614,
      "ms": 615,
      "ws": 616,
      "input": 617,
      "ref": 618,
      "scal": 619,
      "diff": 620,
      "when": 621,
      "_PyEval": 622,
      "=\"": 623,
      "bo": 624,
      "ou": 625,
      "win": 626,
      "ine": 627,
      "inter": 628,
      "report": 629,
      "te": 630,
      "head": 631,
      "whi": 632,
      "36": 633,
      "Con": 634,
      "tests": 635,
      "0x0000": 636,
      "havi": 637,
      "18": 638,
      "ron": 639,
      "dev": 640,
      "loss": 641,
      "lay": 642,
      "urrent": 643,
      "aa": 644,
      "ory": 645,
      "trib": 646,
      "checkpoint": 647,
      "loat": 648,
      "which": 649,
      "havior": 650,
      "26": 651,
      "Version": 652,
      "ked": 653,
      "pytorch": 654,
      "ing_": 655,
      "ute": 656,
      "docs": 657,
      "ress": 658,
      "ready": 659,
      "arm64": 660,
      "')": 661,
      "(`": 662,
      "47": 663,
      "float": 664,
      "reg": 665,
      "tok": 666,
      "pected": 667,
      "37": 668,
      "x86": 669,
      "already": 670,
      "ates": 671,
      "ils": 672,
      "run_": 673,
      "AL": 674,
      "Call": 675,
      "For": 676,
      "act": 677,
      "ler": 678,
      "os": 679,
      "object": 680,
      "pes": 681,
      "ined": 682,
      "_PyObject": 683,
      "512": 684,
      "IN": 685,
      "affect": 686,
      "bit": 687,
      "ance": 688,
      "ally": 689,
      "shift": 690,
      "find": 691,
      "([": 692,
      "102": 693,
      "dd": 694,
      "fo": 695,
      "nam": 696,
      "ust": 697,
      "doc": 698,
      "html": 699,
      "~~~~~~~~": 700,
      "0x7f4ff43": 701,
      "OR": 702,
      "_64": 703,
      "rst": 704,
      "ser": 705,
      "ugg": 706,
      "x86_64": 707,
      "('": 708,
      "28": 709,
      "='": 710,
      "df": 711,
      "ux": 712,
      "ree": 713,
      "arn": 714,
      "fter": 715,
      "Index": 716,
      ")`": 717,
      "25": 718,
      "_c": 719,
      "_core": 720,
      "app": 721,
      "blo": 722,
      "fil": 723,
      "000": 724,
      "modu": 725,
      "module": 726,
      "90": 727,
      "ize": 728,
      "sing": 729,
      "you": 730,
      "alloc": 731,
      "ismatch": 732,
      "stem": 733,
      "valid": 734,
      "clang": 735,
      "string": 736,
      "46": 737,
      "_S": 738,
      "fla": 739,
      "ial": 740,
      "rand": 741,
      "ud": 742,
      "was": 743,
      "way": 744,
      "def": 745,
      "dows": 746,
      "mit": 747,
      "ask": 748,
      "uto": 749,
      "should": 750,
      "sys": 751,
      "Reprodu": 752,
      "11": 753,
      "48": 754,
      "AN": 755,
      "UT": 756,
      "al_": 757,
      "unt": 758,
      "exist": 759,
      "user": 760,
      "40": 761,
      "AS": 762,
      "CPU": 763,
      "OS": 764,
      "Test": 765,
      "lic": 766,
      "lement": 767,
      "0x100": 768,
      "0x102": 769,
      "behavior": 770,
      "process": 771,
      "correct": 772,
      "^^^^^^^^^^^^^^^^": 773,
      "args": 774,
      "age": 775,
      "ep": 776,
      "ies": 777,
      "lm": 778,
      "alse": 779,
      "math": 780,
      "peci": 781,
      "Lin": 782,
      "_R": 783,
      "_b": 784,
      "ain": 785,
      "current": 786,
      "ker": 787,
      "alg": 788,
      "value": 789,
      "train": 790,
      "example": 791,
      "Versions": 792,
      "arning": 793,
      "Pro": 794,
      "_Eval": 795,
      "med": 796,
      "pu": 797,
      "son": 798,
      "max": 799,
      "sha": 800,
      "expert": 801,
      "new": 802,
      "function": 803,
      "))": 804,
      "::": 805,
      "Tr": 806,
      "fol": 807,
      "hand": 808,
      "ky": 809,
      "min": 810,
      "any": 811,
      "ition": 812,
      "ility": 813,
      "ull": 814,
      "ceval": 815,
      "map": 816,
      "supp": 817,
      "install": 818,
      "Moshi": 819,
      "22": 820,
      "Num": 821,
      "SD": 822,
      "_n": 823,
      "gu": 824,
      "umath": 825,
      "deta": 826,
      "like": 827,
      "logits": 828,
      "recent": 829,
      "layout": 830,
      "27": 831,
      "Des": 832,
      "after": 833,
      "var": 834,
      "ype": 835,
      "ant": 836,
      "requ": 837,
      "rout": 838,
      "class": 839,
      "viron": 840,
      "latform": 841,
      "True": 842,
      "details": 843,
      "50": 844,
      "80": 845,
      "87": 846,
      "False": 847,
      "MP": 848,
      "MS": 849,
      "Not": 850,
      "Win": 851,
      "bin": 852,
      "cc": 853,
      "eg": 854,
      "mes": 855,
      "pass": 856,
      "text": 857,
      "lex": 858,
      "_PyEval_Eval": 859,
      "random": 860,
      "_PyEval_EvalFrame": 861,
      "Type": 862,
      "_size": 863,
      "bran": 864,
      "dy": 865,
      "gro": 866,
      "gra": 867,
      "own": 868,
      "ypes": 869,
      "stat": 870,
      "conver": 871,
      "most": 872,
      "ations": 873,
      "../": 874,
      "failure": 875,
      "0x7f4ff40": 876,
      "Default": 877,
      ">>>": 878,
      "exception": 879,
      "branch": 880,
      "1e": 881,
      "OC": 882,
      "])": 883,
      "_v": 884,
      "over": 885,
      "ru": 886,
      "ange": 887,
      "arch": 888,
      "ctor": 889,
      "mod": 890,
      "vel": 891,
      "ability": 892,
      "Model": 893,
      "kerne": 894,
      "experts": 895,
      "support": 896,
      "NumPy": 897,
      "Windows": 898,
      "45": 899,
      "LM": 900,
      "warning": 901,
      "---": 902,
      "add": 903,
      "linalg": 904,
      "very": 905,
      "csv": 906,
      "header": 907,
      "blob": 908,
      "shape": 909,
      "23": 910,
      "AP": 911,
      "CI": 912,
      "batch": 913,
      "im": 914,
      "ip": 915,
      "json": 916,
      "pre": 917,
      "ved": 918,
      "init": 919,
      "indi": 920,
      "tho": 921,
      "ore": 922,
      "first": 923,
      "fore": 924,
      "scri": 925,
      "----------------": 926,
      "names": 927,
      "RE": 928,
      "[\"": 929,
      "bc": 930,
      "cri": 931,
      "date": 932,
      "ool": 933,
      "san": 934,
      "sig": 935,
      "into": 936,
      "err": 937,
      "arrow": 938,
      "ash": 939,
      "iter": 940,
      "no_": 941,
      "safe": 942,
      "ical": 943,
      "from_": 944,
      "returns": 945,
      "_Vectorcall": 946,
      "script": 947,
      "Ca": 948,
      "Is": 949,
      "ON": 950,
      "ced": 951,
      "last": 952,
      "lang": 953,
      "md": 954,
      "mm": 955,
      "rary": 956,
      "wr": 957,
      "state": 958,
      "still": 959,
      "count": 960,
      "integ": 961,
      "hel": 962,
      "face": 963,
      "while": 964,
      "num_": 965,
      "_mismatch": 966,
      "output_mismatch": 967,
      "tribut": 968,
      "affected": 969,
      "files": 970,
      "5c": 971,
      "AT": 972,
      "BSD": 973,
      "GPU": 974,
      "LE": 975,
      "['": 976,
      "_me": 977,
      "anti": 978,
      "rele": 979,
      "ctypes": 980,
      "cket": 981,
      "ulner": 982,
      "linked": 983,
      "works": 984,
      "backend": 985,
      "================": 986,
      "avx": 987,
      "document": 988,
      "single": 989,
      "exists": 990,
      "convert": 991,
      "indices": 992,
      "cription": 993,
      "ulnerability": 994,
      "2d": 995,
      "33": 996,
      "97": 997,
      "_to": 998,
      "ds": 999,
      "des": 1000,
      "ead": 1001,
      "frame": 1002,
      "non": 1003,
      "name": 1004,
      "ude": 1005,
      "xls": 1006,
      "pydata": 1007,
      "enco": 1008,
      "ence": 1009,
      "izer": 1010,
      "scale": 1011,
      "_PyObject_Vectorcall": 1012,
      "':": 1013,
      "DI": 1014,
      "Sy": 1015,
      "Vulnerability": 1016,
      "_de": 1017,
      "_1d": 1018,
      "cu": 1019,
      "my": 1020,
      "ous": 1021,
      "ql": 1022,
      "would": 1023,
      "also": 1024,
      "ature": 1025,
      "pyarrow": 1026,
      "loo": 1027,
      "tim": 1028,
      "ident": 1029,
      "models": 1030,
      "compil": 1031,
      "confir": 1032,
      "Expected": 1033,
      "differ": 1034,
      "!--": 1035,
      "<!--": 1036,
      "ER": 1037,
      "ba": 1038,
      "ding": 1039,
      "our": 1040,
      "sk": 1041,
      "ves": 1042,
      "art": 1043,
      "ingface": 1044,
      "dep": 1045,
      "-->": 1046,
      "fied": 1047,
      "libc": 1048,
      "dir": 1049,
      "clude": 1050,
      "vice": 1051,
      "range": 1052,
      "regr": 1053,
      "uggingface": 1054,
      "kernel": 1055,
      "CU": 1056,
      "Run": 1057,
      "_no_": 1058,
      "gate": 1059,
      "ns": 1060,
      "ujson": 1061,
      "wo": 1062,
      "reprodu": 1063,
      "eng": 1064,
      "used": 1065,
      "sage": 1066,
      "modeling_": 1067,
      "assert": 1068,
      "array_": 1069,
      "instead": 1070,
      "get_": 1071,
      "crt": 1072,
      "f2py": 1073,
      "flag": 1074,
      "_PyEval_EvalFrameDefault": 1075,
      "group": 1076,
      "confirmed": 1077,
      "->": 1078,
      "21": 1079,
      "Co": 1080,
      "Ser": 1081,
      "Wh": 1082,
      "case": 1083,
      "d1d": 1084,
      "mal": 1085,
      "mis": 1086,
      "ni": 1087,
      "sm": 1088,
      "she": 1089,
      "than": 1090,
      "pytest": 1091,
      "ross": 1092,
      "rained": 1093,
      "mage": 1094,
      "before": 1095,
      "read_": 1096,
      "ids": 1097,
      "parse": 1098,
      "key": 1099,
      "builds": 1100,
      "weight": 1101,
      "raises": 1102,
      "vari": 1103,
      "0x7f4ff40e": 1104,
      "regrtest": 1105,
      "\"`": 1106,
      "55": 1107,
      "NV": 1108,
      "WOR": 1109,
      "clo": 1110,
      "cast": 1111,
      "git": 1112,
      "multi": 1113,
      "alLM": 1114,
      "ases": 1115,
      "mps": 1116,
      "ently": 1117,
      "sour": 1118,
      "usalLM": 1119,
      "tri": 1120,
      "trun": 1121,
      "linux": 1122,
      "velo": 1123,
      "direct": 1124,
      "pping": 1125,
      "Objects": 1126,
      "raise": 1127,
      "plit": 1128,
      "differs": 1129,
      "tokens": 1130,
      "ForCa": 1131,
      "request": 1132,
      "avx512": 1133,
      "CUD": 1134,
      "ForCausalLM": 1135,
      "\":": 1136,
      "/../": 1137,
      "BU": 1138,
      "CL": 1139,
      "En": 1140,
      "MD": 1141,
      "No": 1142,
      "].": 1143,
      "`)": 1144,
      "`:": 1145,
      "ainst": 1146,
      "din": 1147,
      "here": 1148,
      "ire": 1149,
      "nu": 1150,
      "speci": 1151,
      "task": 1152,
      "ong": 1153,
      "ative": 1154,
      "arwin": 1155,
      "coor": 1156,
      "expected": 1157,
      "libregrtest": 1158,
      "been": 1159,
      "dict": 1160,
      "ateg": 1161,
      "who": 1162,
      "what": 1163,
      "Int": 1164,
      "against": 1165,
      "comm": 1166,
      "exec": 1167,
      "system": 1168,
      "colum": 1169,
      "acce": 1170,
      "examples": 1171,
      "token": 1172,
      "follow": 1173,
      "vironment": 1174,
      "message": 1175,
      "modul": 1176,
      "BUG": 1177,
      "4d": 1178,
      "58": 1179,
      "66": 1180,
      "Auto": 1181,
      "_from_": 1182,
      "ach": 1183,
      "ble": 1184,
      "cases": 1185,
      "huggingface": 1186,
      "io": 1187,
      "chain": 1188,
      "libpython3": 1189,
      "because": 1190,
      "tric": 1191,
      "quanti": 1192,
      "never": 1193,
      "checks": 1194,
      "parti": 1195,
      "_multi": 1196,
      "ized": 1197,
      "_PyEval_Vector": 1198,
      "both": 1199,
      "trainer": 1200,
      "layoutlm": 1201,
      "signal": 1202,
      "tributed": 1203,
      "source": 1204,
      "\"<": 1205,
      "84": 1206,
      "LD": 1207,
      "_2d": 1208,
      "a0": 1209,
      "ai": 1210,
      "cal": 1211,
      "every": 1212,
      "flow": 1213,
      "n_": 1214,
      "pen": 1215,
      "split": 1216,
      "tz": 1217,
      "ten": 1218,
      "whe": 1219,
      "xl": 1220,
      "ored": 1221,
      "itizer": 1222,
      "util": 1223,
      "expect": 1224,
      "socket": 1225,
      "sub": 1226,
      "suite": 1227,
      "factor": 1228,
      "runs": 1229,
      "00000000": 1230,
      "prs": 1231,
      "compute": 1232,
      "retrained": 1233,
      "arrays": 1234,
      "0x7f4ff43d1d": 1235,
      "Description": 1236,
      "xlsx": 1237,
      "_no_trainer": 1238,
      "WORLD": 1239,
      "CUDA": 1240,
      "coordin": 1241,
      "09": 1242,
      ":\",": 1243,
      "AV": 1244,
      "Al": 1245,
      "Tra": 1246,
      "cce": 1247,
      "ew": 1248,
      "gnu": 1249,
      "ling": 1250,
      "ove": 1251,
      "sql": 1252,
      "vo": 1253,
      "vcrt": 1254,
      "repro": 1255,
      "change": 1256,
      "utai": 1257,
      "post": 1258,
      "using": 1259,
      "down": 1260,
      "above": 1261,
      "igin": 1262,
      "where": 1263,
      "samp": 1264,
      "index_": 1265,
      "ignment": 1266,
      "internal": 1267,
      "reported": 1268,
      "Confi": 1269,
      "0x00007": 1270,
      "_PyObject_": 1271,
      "found": 1272,
      "Linux": 1273,
      "API": 1274,
      "integr": 1275,
      "small": 1276,
      "shell": 1277,
      "trunc": 1278,
      "24": 1279,
      "56": 1280,
      "59": 1281,
      "79": 1282,
      "</": 1283,
      "Add": 1284,
      "Tstate": 1285,
      "_result": 1286,
      "auto": 1287,
      "equ": 1288,
      "ir": 1289,
      "man": 1290,
      "mme": 1291,
      "must": 1292,
      "sp": 1293,
      "tes": 1294,
      "tent": 1295,
      "two": 1296,
      "ual": 1297,
      "ward": 1298,
      "ince": 1299,
      "ator": 1300,
      "ating": 1301,
      "ions": 1302,
      "unit": 1303,
      "see": 1304,
      "separ": 1305,
      "exact": 1306,
      "ceback": 1307,
      "mach": 1308,
      "conversion": 1309,
      "conta": 1310,
      "below": 1311,
      "ffer": 1312,
      "buffer": 1313,
      "save": 1314,
      "ments": 1315,
      "1542": 1316,
      "built": 1317,
      "side": 1318,
      "ample": 1319,
      "rank": 1320,
      "...>": 1321,
      "argument": 1322,
      "logs": 1323,
      "ightly": 1324,
      "bbbb": 1325,
      "_pretrained": 1326,
      "msg": 1327,
      "aaaa": 1328,
      "float16": 1329,
      "allocation": 1330,
      "ANK": 1331,
      "System": 1332,
      "mmetric": 1333,
      "4bit": 1334,
      "72": 1335,
      "915": 1336,
      "AI": 1337,
      "Data": 1338,
      "Fi": 1339,
      "Lo": 1340,
      "Ma": 1341,
      "Multi": 1342,
      "Open": 1343,
      "SE": 1344,
      "\\\\": 1345,
      "b4": 1346,
      "bits": 1347,
      "categ": 1348,
      "element": 1349,
      "fall": 1350,
      "flat": 1351,
      "led": 1352,
      "tar": 1353,
      "venv": 1354,
      "x_": 1355,
      "ins": 1356,
      "thes": 1357,
      "lea": 1358,
      "device": 1359,
      "chang": 1360,
      "std": 1361,
      "stand": 1362,
      "start": 1363,
      "rather": 1364,
      "sur": 1365,
      "())": 1366,
      "____": 1367,
      "via": 1368,
      "there": 1369,
      "returned": 1370,
      "under": 1371,
      "thread_": 1372,
      "hash": 1373,
      "tensors": 1374,
      "crib": 1375,
      "Runtime": 1376,
      "weights": 1377,
      "columns": 1378,
      "quantiz": 1379,
      "AVX": 1380,
      "index_col": 1381,
      "Config": 1382,
      "unittest": 1383,
      "target": 1384,
      "!!": 1385,
      "06": 1386,
      "34": 1387,
      "76": 1388,
      "99": 1389,
      "=[": 1390,
      "AD": 1391,
      "App": 1392,
      "Be": 1393,
      "CPython": 1394,
      "It": 1395,
      "LOC": 1396,
      "Str": 1397,
      "_lib": 1398,
      "`),": 1399,
      "mory": 1400,
      "p3": 1401,
      "patch": 1402,
      "ting": 1403,
      "tect": 1404,
      "tack": 1405,
      "xpu": 1406,
      "ython": 1407,
      "real": 1408,
      "uni": 1409,
      "erson": 1410,
      "cond": 1411,
      "moshi": 1412,
      "que": 1413,
      "checked": 1414,
      "commit": 1415,
      "fails": 1416,
      "1000": 1417,
      "core_": 1418,
      "Example": 1419,
      "licit": 1420,
      "errno": 1421,
      "0x7f4ff43d1d36": 1422,
      "equal": 1423,
      "LOCAL": 1424,
      "'],": 1425,
      "++": 1426,
      "Prep": 1427,
      "[`": 1428,
      "_C": 1429,
      "_d": 1430,
      "_l": 1431,
      "_r": 1432,
      "af": 1433,
      "base": 1434,
      "dri": 1435,
      "darwin": 1436,
      "ec": 1437,
      "eval": 1438,
      "kno": 1439,
      "rd": 1440,
      "sil": 1441,
      "will": 1442,
      "then": 1443,
      "remo": 1444,
      "level": 1445,
      "seg": 1446,
      "cover": 1447,
      "fici": 1448,
      "some": 1449,
      "lam": 1450,
      "cache": 1451,
      "how": 1452,
      "optim": 1453,
      "latest": 1454,
      "limit": 1455,
      "distributed": 1456,
      "generated": 1457,
      "Reproduc": 1458,
      "thod": 1459,
      "release": 1460,
      "scale_result": 1461,
      "Prepend": 1462,
      "29": 1463,
      "38": 1464,
      "52": 1465,
      "A3": 1466,
      "Ar": 1467,
      "PY": 1468,
      "Val": 1469,
      "Xcode": 1470,
      "_a": 1471,
      "`/": 1472,
      "ban": 1473,
      "ech": 1474,
      "go": 1475,
      "ified": 1476,
      "kw": 1477,
      "ow": 1478,
      "rest": 1479,
      "ume": 1480,
      "invalid": 1481,
      "order": 1482,
      "ated_": 1483,
      "pycore_": 1484,
      "ise": 1485,
      "arge": 1486,
      "lect": 1487,
      "ion_": 1488,
      "mode": 1489,
      "did": 1490,
      "resume": 1491,
      "122": 1492,
      "clud": 1493,
      "view": 1494,
      "explicit": 1495,
      "item": 1496,
      "implement": 1497,
      "need": 1498,
      "fixed": 1499,
      "lated": 1500,
      "refer": 1501,
      "correctly": 1502,
      "_base": 1503,
      "warnings": 1504,
      "oolchain": 1505,
      "LED": 1506,
      "_from_checkpoint": 1507,
      "\"<...>": 1508,
      "separate": 1509,
      "MultiIndex": 1510,
      "String": 1511,
      "driver": 1512,
      "banner": 1513,
      "resume_from_checkpoint": 1514,
      "\"<...>/": 1515,
      "230": 1516,
      "39": 1517,
      "An": 1518,
      "Bug": 1519,
      "GB": 1520,
      "IDI": 1521,
      "ME": 1522,
      "My": 1523,
      "NC": 1524,
      "On": 1525,
      "Ro": 1526,
      "Ste": 1527,
      "To": 1528,
      "ZE": 1529,
      "]`": 1530,
      "_T": 1531,
      "_version": 1532,
      "cb": 1533,
      "cab": 1534,
      "d0": 1535,
      "hard": 1536,
      "iB": 1537,
      "mat": 1538,
      "nightly": 1539,
      "ound": 1540,
      "y_": 1541,
      "zer": 1542,
      "default": 1543,
      "develo": 1544,
      "stack": 1545,
      "loop": 1546,
      "estamp": 1547,
      "extra": 1548,
      "peech": 1549,
      "conti": 1550,
      "abled": 1551,
      "without": 1552,
      "cli": 1553,
      "ctions": 1554,
      "pace": 1555,
      "failed": 1556,
      "feature": 1557,
      "generated_": 1558,
      "excel": 1559,
      "SIG": 1560,
      "0x1026": 1561,
      "_RANK": 1562,
      "guous": 1563,
      "supported": 1564,
      "initial": 1565,
      "Issue": 1566,
      "_to_": 1567,
      "encoding": 1568,
      "NVIDI": 1569,
      "Environment": 1570,
      "whose": 1571,
      "WORLD_": 1572,
      "Traceback": 1573,
      "silently": 1574,
      "Reproducible": 1575,
      "contiguous": 1576,
      "generated_cases": 1577,
      "NVIDIA": 1578,
      "(-": 1579,
      ")]": 1580,
      "3f": 1581,
      "57": 1582,
      "89": 1583,
      "819": 1584,
      "Clang": 1585,
      "DType": 1586,
      "Mem": 1587,
      "We": 1588,
      "_D": 1589,
      "`](": 1590,
      "ber": 1591,
      "eb": 1592,
      "fp": 1593,
      "len": 1594,
      "las": 1595,
      "long": 1596,
      "large": 1597,
      "ob": 1598,
      "option": 1599,
      "ts": 1600,
      "uage": 1601,
      "thing": 1602,
      "ors": 1603,
      "ased": 1604,
      "iton": 1605,
      "ravel": 1606,
      "cons": 1607,
      "such": 1608,
      "offici": 1609,
      "calls": 1610,
      "types": 1611,
      "from_pretrained": 1612,
      "Ref": 1613,
      "else": 1614,
      "PRs": 1615,
      "func": 1616,
      "SIZE": 1617,
      "UTC": 1618,
      "training": 1619,
      "itional": 1620,
      "grad": 1621,
      "---|": 1622,
      "language": 1623,
      "documentation": 1624,
      "array_umath": 1625,
      "Intel": 1626,
      "_multiarray_umath": 1627,
      "layoutlmv": 1628,
      "vocab": 1629,
      "0x0000790": 1630,
      "AVX512": 1631,
      "develop": 1632,
      "Memory": 1633,
      "05": 1634,
      "0a0": 1635,
      "2c": 1636,
      "Ass": 1637,
      "Acce": 1638,
      "Di": 1639,
      "Git": 1640,
      "OM": 1641,
      "PC": 1642,
      "ST": 1643,
      "_h": 1644,
      "dist": 1645,
      "ev": 1646,
      "ful": 1647,
      "free": 1648,
      "full": 1649,
      "image": 1650,
      "mma": 1651,
      "off": 1652,
      "opt": 1653,
      "pc": 1654,
      "pad": 1655,
      "tag": 1656,
      "ugh": 1657,
      "vis": 1658,
      "wen": 1659,
      "inv": 1660,
      "leg": 1661,
      "char": 1662,
      "rough": 1663,
      "lot": 1664,
      "ily": 1665,
      "tool": 1666,
      "forward": 1667,
      "gemma": 1668,
      "triton": 1669,
      "ures": 1670,
      "().": 1671,
      "pped": 1672,
      "tach": 1673,
      "uble": 1674,
      "ueError": 1675,
      "ed_experts": 1676,
      "rows": 1677,
      "threading": 1678,
      "disabled": 1679,
      "tern": 1680,
      "crash": 1681,
      "0x000000000000": 1682,
      "ression": 1683,
      "namic": 1684,
      "flaky": 1685,
      "UTF": 1686,
      "processor": 1687,
      "Describ": 1688,
      "routed_experts": 1689,
      "safety": 1690,
      "help": 1691,
      "depend": 1692,
      "triage": 1693,
      "modules": 1694,
      "n_routed_experts": 1695,
      "wheel": 1696,
      "factorize": 1697,
      "Make": 1698,
      "ValueError": 1699,
      "implementation": 1700,
      "StringDType": 1701,
      "vocab_size": 1702,
      "Describe": 1703,
      "\"]": 1704,
      "./": 1705,
      "04": 1706,
      "3c": 1707,
      "If": 1708,
      "Ke": 1709,
      "Mes": 1710,
      "Pandas": 1711,
      "Platform": 1712,
      "Se": 1713,
      "Torch": 1714,
      "VC": 1715,
      "_ho": 1716,
      "`'": 1717,
      "bs": 1718,
      "bed": 1719,
      "bfloat16": 1720,
      "eig": 1721,
      "fl": 1722,
      "f16": 1723,
      "gon": 1724,
      "ice": 1725,
      "kes": 1726,
      "mismatch": 1727,
      "nb": 1728,
      "nor": 1729,
      "pon": 1730,
      "qt": 1731,
      "rs": 1732,
      "sort": 1733,
      "since": 1734,
      "tro": 1735,
      "tab": 1736,
      "attach": 1737,
      "reas": 1738,
      "ream": 1739,
      "pyxl": 1740,
      "aris": 1741,
      "asy": 1742,
      "detect": 1743,
      "utils": 1744,
      "memory": 1745,
      "adbc": 1746,
      "ulate": 1747,
      "mapping": 1748,
      "sues": 1749,
      "PyTorch": 1750,
      "double": 1751,
      "respon": 1752,
      "Inst": 1753,
      "Include": 1754,
      "part": 1755,
      "param": 1756,
      "comput": 1757,
      "cannot": 1758,
      "Frameworks": 1759,
      "_speci": 1760,
      "openpyxl": 1761,
      "input_": 1762,
      "bound": 1763,
      "tribute": 1764,
      "lerate": 1765,
      "ING": 1766,
      "shift_": 1767,
      "_Stack": 1768,
      "currently": 1769,
      "_v2": 1770,
      "rupt": 1771,
      "writ": 1772,
      "num_experts": 1773,
      "identical": 1774,
      "blem": 1775,
      "integration": 1776,
      "mmetricMemory": 1777,
      "standard": 1778,
      "surro": 1779,
      "zero": 1780,
      "_hoo": 1781,
      "attachments": 1782,
      "response": 1783,
      "_StackRef": 1784,
      "(...": 1785,
      "3a": 1786,
      "43": 1787,
      "4e": 1788,
      "60": 1789,
      "9c": 1790,
      ">`": 1791,
      "B3": 1792,
      "Current": 1793,
      "Cmsg": 1794,
      "Imp": 1795,
      "Qwen": 1796,
      "Trun": 1797,
      "Un": 1798,
      "[:": 1799,
      "_F": 1800,
      "_index": 1801,
      "bnb": 1802,
      "cp3": 1803,
      "dll": 1804,
      "each": 1805,
      "fet": 1806,
      "fast": 1807,
      "gs": 1808,
      "kill": 1809,
      "late": 1810,
      "many": 1811,
      "next": 1812,
      "o2": 1813,
      "pat": 1814,
      "ry": 1815,
      "sion": 1816,
      "wid": 1817,
      "wise": 1818,
      "},": 1819,
      "include": 1820,
      "through": 1821,
      "ances": 1822,
      "ener": 1823,
      "environ": 1824,
      "issues": 1825,
      "arri": 1826,
      "itt": 1827,
      "stream": 1828,
      "cop": 1829,
      "ragon": 1830,
      "mpt": 1831,
      "pec": 1832,
      "summ": 1833,
      "lamp": 1834,
      "():": 1835,
      "dim": 1836,
      "runtime": 1837,
      "cally": 1838,
      "**:": 1839,
      "__san": 1840,
      "ensors": 1841,
      "_Py_Vector": 1842,
      "comple": 1843,
      "assignment": 1844,
      "instance": 1845,
      "Thread": 1846,
      "stru": 1847,
      "generate": 1848,
      "recv": 1849,
      "loading": 1850,
      "plugg": 1851,
      "')],": 1852,
      "([('": 1853,
      "df1": 1854,
      "block": 1855,
      "0x10247": 1856,
      "folder": 1857,
      "handle": 1858,
      "MPS": 1859,
      "TypeError": 1860,
      "dylib": 1861,
      "stats": 1862,
      "scripts": 1863,
      "ski": 1864,
      "Series": 1865,
      "read_csv": 1866,
      "accept": 1867,
      "expected_": 1868,
      "coordinate": 1869,
      "iginal": 1870,
      "machine": 1871,
      "First": 1872,
      "unique": 1873,
      "known": 1874,
      "Steal": 1875,
      "client": 1876,
      "WORLD_SIZE": 1877,
      "Install": 1878,
      "_StackRefSteal": 1879,
      "CmsgTrun": 1880,
      "__sanitizer": 1881,
      "_Py_VectorCall": 1882,
      "pluggy": 1883,
      "CmsgTrunc": 1884,
      "\"])": 1885,
      "2e": 1886,
      "49": 1887,
      "69": 1888,
      "85": 1889,
      "96": 1890,
      ":**": 1891,
      "A2": 1892,
      "AB": 1893,
      "AC": 1894,
      "AR": 1895,
      "AMD": 1896,
      "Cli": 1897,
      "Cython": 1898,
      "Dragon": 1899,
      "Fly": 1900,
      "MI": 1901,
      "NA": 1902,
      "SH": 1903,
      "_dtype": 1904,
      "_000": 1905,
      "_No": 1906,
      "`\"": 1907,
      "`(": 1908,
      "ail": 1909,
      "api": 1910,
      "bm": 1911,
      "bot": 1912,
      "cat": 1913,
      "cus": 1914,
      "cur": 1915,
      "dur": 1916,
      "e9": 1917,
      "eps": 1918,
      "f7": 1919,
      "ffix": 1920,
      "fill": 1921,
      "just": 1922,
      "mar": 1923,
      "pres": 1924,
      "ses": 1925,
      "tsc": 1926,
      "vand": 1927,
      "wron": 1928,
      "related": 1929,
      "them": 1930,
      "they": 1931,
      "around": 1932,
      "lead": 1933,
      "utom": 1934,
      "andid": 1935,
      "unch": 1936,
      "testing": 1937,
      "testbed": 1938,
      "toler": 1939,
      "launch": 1940,
      "int64": 1941,
      "ush": 1942,
      "uses": 1943,
      "ither": 1944,
      "try": 1945,
      "position": 1946,
      "128": 1947,
      "verified": 1948,
      "Info": 1949,
      "workflow": 1950,
      "dumps": 1951,
      "format": 1952,
      "formation": 1953,
      "olved": 1954,
      "154": 1955,
      "compress": 1956,
      "ends": 1957,
      "_ms": 1958,
      "importlib": 1959,
      "There": 1960,
      "fea": 1961,
      "ization": 1962,
      "Library": 1963,
      "termin": 1964,
      "generation": 1965,
      "_platform": 1966,
      "interp": 1967,
      "INT": 1968,
      "~~~~~~~~~~~~~~~~": 1969,
      "ways": 1970,
      "Reproduction": 1971,
      "0x10023": 1972,
      "0x10009": 1973,
      "Linked": 1974,
      "kyutai": 1975,
      "guard": 1976,
      "MSVC": 1977,
      "framework": 1978,
      "skip": 1979,
      "Comp": 1980,
      "DataFrame": 1981,
      "these": 1982,
      "Behavior": 1983,
      "kwargs": 1984,
      "reference": 1985,
      "0x0000790a": 1986,
      "development": 1987,
      "_special_": 1988,
      "shift_labels": 1989,
      "response_": 1990,
      "width": 1991,
      "Installed": 1992,
      "DragonFly": 1993,
      "vander": 1994,
      "wrong": 1995,
      "tolerance": 1996,
      "'])": 1997,
      ".)": 1998,
      "1c": 1999,
      "219": 2000,
      "31": 2001,
      "82": 2002,
      "CH": 2003,
      "EN": 2004,
      "Fast": 2005,
      "GH": 2006,
      "M3": 2007,
      "Min": 2008,
      "Plex": 2009,
      "Person": 2010,
      "Who": 2011,
      "_e": 2012,
      "_run_": 2013,
      "_tokens": 2014,
      "_dumps": 2015,
      "`).": 2016,
      "aPlex": 2017,
      "cer": 2018,
      "cross": 2019,
      "dro": 2020,
      "dest": 2021,
      "fc": 2022,
      "fas": 2023,
      "gre": 2024,
      "na": 2025,
      "ox": 2026,
      "platform": 2027,
      "pthread_": 2028,
      "snew": 2029,
      "tsan": 2030,
      "udi": 2031,
      "ving": 2032,
      "wra": 2033,
      "inh": 2034,
      "includ": 2035,
      "er_": 2036,
      "always": 2037,
      "remain": 2038,
      "rection": 2039,
      "ish": 2040,
      "isti": 2041,
      "lock": 2042,
      "ested": 2043,
      "^^^": 2044,
      "tested": 2045,
      "fic": 2046,
      "may": 2047,
      "lace": 2048,
      "igation": 2049,
      "call_": 2050,
      "versions": 2051,
      "2024": 2052,
      "144": 2053,
      "net": 2054,
      "tapi": 2055,
      "instances": 2056,
      "failing": 2057,
      "ell": 2058,
      "threads": 2059,
      "bbox": 2060,
      "avail": 2061,
      "loads": 2062,
      "scalar": 2063,
      "dev0": 2064,
      "loss_": 2065,
      "regression": 2066,
      "find_ms": 2067,
      "_SU": 2068,
      "Reproduce": 2069,
      "existing": 2070,
      "lications": 2071,
      "Process": 2072,
      "dynamic": 2073,
      "datetime": 2074,
      "_method": 2075,
      "indices_1d": 2076,
      "_PyObject_VectorcallTstate": 2077,
      "ujson_dumps": 2078,
      "engine": 2079,
      "close": 2080,
      "special": 2081,
      "whatsnew": 2082,
      "_PyObject_Call": 2083,
      "4bit_": 2084,
      "categor": 2085,
      "fallback": 2086,
      "quantization": 2087,
      "LOCAL_RANK": 2088,
      "segment": 2089,
      "optimize": 2090,
      "`/`": 2091,
      "NCCL": 2092,
      "consist": 2093,
      "Dict": 2094,
      "Meson": 2095,
      "input_ids": 2096,
      "ittle": 2097,
      "AMD64": 2098,
      "during": 2099,
      "PersonaPlex": 2100,
      "fastapi": 2101,
      "udio": 2102,
      "available": 2103,
      "find_msvcrt": 2104,
      "\"],": 2105,
      "']": 2106,
      "0f": 2107,
      "65": 2108,
      "78": 2109,
      ":\\": 2110,
      ":].": 2111,
      "At": 2112,
      "B2": 2113,
      "Bu": 2114,
      "By": 2115,
      "C2": 2116,
      "DO": 2117,
      "How": 2118,
      "Last": 2119,
      "MiB": 2120,
      "PN": 2121,
      "RO": 2122,
      "So": 2123,
      "TH": 2124,
      "Tp": 2125,
      "Uni": 2126,
      "_as": 2127,
      "_int": 2128,
      "_local": 2129,
      "_config": 2130,
      "_object": 2131,
      "_doc": 2132,
      "_map": 2133,
      "`[": 2134,
      "cpp": 2135,
      "df2": 2136,
      "emp": 2137,
      "iate": 2138,
      "nd": 2139,
      "nn": 2140,
      "ple": 2141,
      "qm": 2142,
      "sparse": 2143,
      "tin": 2144,
      "vs": 2145,
      "vent": 2146,
      "vant": 2147,
      "original": 2148,
      "reject": 2149,
      "pypi": 2150,
      "aries": 2151,
      "debug": 2152,
      "route": 2153,
      "step": 2154,
      "come": 2155,
      "ild": 2156,
      "met": 2157,
      "now": 2158,
      "make": 2159,
      "0x10": 2160,
      "library": 2161,
      "users": 2162,
      "168": 2163,
      "links": 2164,
      "shut": 2165,
      "dia": 2166,
      "direction": 2167,
      "posi": 2168,
      "posed": 2169,
      "120": 2170,
      "pp_doc": 2171,
      "test_win": 2172,
      "test_umath": 2173,
      "test_importlib": 2174,
      "145": 2175,
      "146": 2176,
      "model_": 2177,
      "pip": 2178,
      "parame": 2179,
      "compat": 2180,
      "compile": 2181,
      "Using": 2182,
      "job": 2183,
      "byte": 2184,
      "tension": 2185,
      "dispatch": 2186,
      "discus": 2187,
      "collect": 2188,
      "raised": 2189,
      "igned": 2190,
      "msvcrt": 2191,
      "ough": 2192,
      "reports": 2193,
      "Conver": 2194,
      "Content": 2195,
      "0x0000000": 2196,
      "tribution": 2197,
      "serge": 2198,
      "_RU": 2199,
      "layout_v2": 2200,
      "MPI": 2201,
      "MSC": 2202,
      "ru_RU": 2203,
      "--------------------------------": 2204,
      "write": 2205,
      "DIS": 2206,
      "compiler": 2207,
      "compiled": 2208,
      "different": 2209,
      "Serge": 2210,
      "read_excel": 2211,
      "variance": 2212,
      "directly": 2213,
      "common": 2214,
      "following": 2215,
      "AutoModel": 2216,
      "partial": 2217,
      "_PyObject_Make": 2218,
      "exactly": 2219,
      "started": 2220,
      "Applications": 2221,
      "Root": 2222,
      "89b": 2223,
      "options": 2224,
      "Key": 2225,
      "[:,": 2226,
      "FastAPI": 2227,
      "inher": 2228,
      "TpCall": 2229,
      "pp_doclayout_v2": 2230,
      "test_windows": 2231,
      "Contents": 2232,
      "_PyObject_MakeTpCall": 2233,
      "((": 2234,
      ");": 2235,
      "116": 2236,
      "214": 2237,
      "335": 2238,
      "44": 2239,
      "53": 2240,
      "9e": 2241,
      "C1": 2242,
      "ES": 2243,
      "Hand": 2244,
      "Ky": 2245,
      "Net": 2246,
      "Ob": 2247,
      "Oper": 2248,
      "OUT": 2249,
      "PO": 2250,
      "Qu": 2251,
      "Res": 2252,
      "St": 2253,
      "San": 2254,
      "TR": 2255,
      "VER": 2256,
      "With": 2257,
      "_re": 2258,
      "_str": 2259,
      "_pytest": 2260,
      "_Prepend": 2261,
      "`-": 2262,
      "`<": 2263,
      "bal": 2264,
      "bro": 2265,
      "based": 2266,
      "clamp": 2267,
      "c89b": 2268,
      "db": 2269,
      "den": 2270,
      "dul": 2271,
      "fib": 2272,
      "ging": 2273,
      "glm": 2274,
      "hy": 2275,
      "hang": 2276,
      "ken": 2277,
      "king": 2278,
      "land": 2279,
      "little": 2280,
      "nc": 2281,
      "ows": 2282,
      "ppy": 2283,
      "pull": 2284,
      "rm": 2285,
      "sw": 2286,
      "ting_": 2287,
      "ually": 2288,
      "inf": 2289,
      "inside": 2290,
      "erge": 2291,
      "ores": 2292,
      "allow": 2293,
      "red": 2294,
      "encode": 2295,
      "asks": 2296,
      "left": 2297,
      "itself": 2298,
      "itive": 2299,
      "ional": 2300,
      "ingle": 2301,
      "round": 2302,
      "unter": 2303,
      "seed": 2304,
      "sequ": 2305,
      "mean": 2306,
      "node": 2307,
      "mac": 2308,
      "contro": 2309,
      "suffix": 2310,
      "being": 2311,
      "16d0": 2312,
      "shows": 2313,
      "abs": 2314,
      "abort": 2315,
      "call__": 2316,
      "call_method": 2317,
      "veral": 2318,
      "cap": 2319,
      "__call__": 2320,
      "happy": 2321,
      "working": 2322,
      "check_": 2323,
      "ended": 2324,
      "keep": 2325,
      "take": 2326,
      "codeError": 2327,
      "gets": 2328,
      "get_platform": 2329,
      "getting_": 2330,
      "failures": 2331,
      "...)": 2332,
      "argv": 2333,
      "Modul": 2334,
      "bytes": 2335,
      "cimal": 2336,
      "889": 2337,
      "across": 2338,
      "lesay": 2339,
      "load_": 2340,
      "doesn": 2341,
      "3016": 2342,
      "SION": 2343,
      "SIMD": 2344,
      "heads": 2345,
      "369": 2346,
      "(['": 2347,
      "256": 2348,
      "allocations": 2349,
      "way_base": 2350,
      "kylesay": 2351,
      "installing": 2352,
      "504": 2353,
      "passed": 2354,
      "those": 2355,
      "helper": 2356,
      "ATE": 2357,
      "================================": 2358,
      "_PyObject_VectorcallDict": 2359,
      "gateway_base": 2360,
      "flags": 2361,
      "When": 2362,
      "keywor": 2363,
      "execnet": 2364,
      "modular": 2365,
      "coordinates": 2366,
      "Alloc": 2367,
      "pycore_ceval": 2368,
      "2308": 2369,
      "peech_to_": 2370,
      "0x10261e": 2371,
      "official": 2372,
      "Accelerate": 2373,
      "even": 2374,
      "legac": 2375,
      "surrogate": 2376,
      "pattern": 2377,
      "interpret": 2378,
      "pthread_kill": 2379,
      "_PyObject_Call_Prepend": 2380,
      "Unicode": 2381,
      "shutdown": 2382,
      "2141": 2383,
      "Kyutai": 2384,
      "Sanitizer": 2385,
      "c89b87": 2386,
      "16d0c89b87": 2387,
      "getting_started": 2388,
      "kylesayrs": 2389,
      "_PyObject_VectorcallDictTstate": 2390,
      "peech_to_text": 2391,
      "\"),": 2392,
      "\"):": 2393,
      "%.": 2394,
      "08": 2395,
      "118": 2396,
      "217": 2397,
      "3b": 2398,
      "314": 2399,
      "488": 2400,
      "520": 2401,
      "5af": 2402,
      "67": 2403,
      "=['": 2404,
      "Blas": 2405,
      "DE": 2406,
      "Free": 2407,
      "GV": 2408,
      "Get": 2409,
      "H100": 2410,
      "LL": 2411,
      "Line": 2412,
      "MA": 2413,
      "OT": 2414,
      "Or": 2415,
      "OMPI": 2416,
      "SU": 2417,
      "Toolchain": 2418,
      "_test": 2419,
      "_ent": 2420,
      "_call": 2421,
      "_main": 2422,
      "_code": 2423,
      "_scal": 2424,
      "_os": 2425,
      "_value": 2426,
      "_count": 2427,
      "_backend": 2428,
      "_convert": 2429,
      "_array_": 2430,
      "_get_": 2431,
      "_extra": 2432,
      "_4bit_": 2433,
      "a2": 2434,
      "binary": 2435,
      "cy": 2436,
      "cle": 2437,
      "ccess": 2438,
      "cpu": 2439,
      "cqm": 2440,
      "dat": 2441,
      "fs": 2442,
      "glo": 2443,
      "got": 2444,
      "hun": 2445,
      "ically": 2446,
      "mon": 2447,
      "mmap": 2448,
      "native": 2449,
      "ters": 2450,
      "tup": 2451,
      "uch": 2452,
      "v1": 2453,
      "vm": 2454,
      "well": 2455,
      "xt": 2456,
      "xct": 2457,
      "xml": 2458,
      "{\"": 2459,
      "{'": 2460,
      "once": 2461,
      "rebuild": 2462,
      "pyd": 2463,
      "isinstance": 2464,
      "arr": 2465,
      "astype": 2466,
      "aset": 2467,
      "ites": 2468,
      "utf": 2469,
      "ropy": 2470,
      "stable": 2471,
      "maint": 2472,
      "makes": 2473,
      "const": 2474,
      "convent": 2475,
      "success": 2476,
      "modi": 2477,
      "laz": 2478,
      "libclang": 2479,
      "bet": 2480,
      "lines": 2481,
      "(),": 2482,
      "problem": 2483,
      "resolved": 2484,
      "caller": 2485,
      "outer": 2486,
      "numer": 2487,
      "Invalid": 2488,
      "linear": 2489,
      "quest": 2490,
      "test_encode": 2491,
      "modeling": 2492,
      "comparis": 2493,
      "136": 2494,
      "350": 2495,
      "perform": 2496,
      "ed_logits": 2497,
      "matches": 2498,
      "indexes": 2499,
      "Develo": 2500,
      "42f": 2501,
      "errors": 2502,
      "loaded": 2503,
      "umentation": 2504,
      "_speech_to_text": 2505,
      "plus": 2506,
      "layer": 2507,
      "layers": 2508,
      "ALL": 2509,
      "shifted_logits": 2510,
      "find_": 2511,
      "([\"": 2512,
      "served": 2513,
      "404": 2514,
      "ASan": 2515,
      "processing": 2516,
      "functional": 2517,
      "require": 2518,
      "routes": 2519,
      "80s": 2520,
      "80GB": 2521,
      "randomly": 2522,
      "status": 2523,
      "address": 2524,
      "converted": 2525,
      "_PyObject_VectorcallPrepend": 2526,
      "loops": 2527,
      "looks": 2528,
      "timestamp": 2529,
      "assert_array_": 2530,
      "Code": 2531,
      "NVSH": 2532,
      "compute_dtype": 2533,
      "truncation": 2534,
      "truncated": 2535,
      "contain": 2536,
      "Loss": 2537,
      "SEGV": 2538,
      "category": 2539,
      "flatten": 2540,
      "x_dynamic": 2541,
      "________": 2542,
      "quantized": 2543,
      "!!!!": 2544,
      "_libs": 2545,
      "_rt": 2546,
      "XcodeDefault": 2547,
      "explicitly": 2548,
      "initialized": 2549,
      "Weight": 2550,
      "tagg": 2551,
      "crashes": 2552,
      "written": 2553,
      "_hooks": 2554,
      "bnb_4bit_": 2555,
      "summary": 2556,
      "complete": 2557,
      "andidates": 2558,
      "kyutai_speech_to_text": 2559,
      "tsan_os": 2560,
      "DISAB": 2561,
      "AutoModelForCausalLM": 2562,
      "NetBSD": 2563,
      "macOS": 2564,
      "36928": 2565,
      "keyword": 2566,
      "Linear": 2567,
      "Toolchains": 2568,
      "dataset": 2569,
      "global": 2570,
      "xctoolchain": 2571,
      "maintain": 2572,
      "modified": 2573,
      "libclang_rt": 2574,
      "comparison": 2575,
      "Developer": 2576,
      "assert_array_equal": 2577,
      "NVSHME": 2578,
      "tsan_osx_dynamic": 2579,
      "!=": 2580,
      "\"`,": 2581,
      "\").": 2582,
      "'),": 2583,
      "(/": 2584,
      "*-": 2585,
      "03": 2586,
      "1Z": 2587,
      "242": 2588,
      "3d": 2589,
      "319": 2590,
      "340": 2591,
      "5ba": 2592,
      "842": 2593,
      "8f7": 2594,
      "9da": 2595,
      ":\\\\": 2596,
      "?:": 2597,
      "Affect": 2598,
      "C_": 2599,
      "Can": 2600,
      "Dis": 2601,
      "Ev": 2602,
      "Fun": 2603,
      "GI": 2604,
      "Hash": 2605,
      "Jun": 2606,
      "LU": 2607,
      "LAN": 2608,
      "LC_": 2609,
      "Met": 2610,
      "NE": 2611,
      "NN": 2612,
      "NU": 2613,
      "Su": 2614,
      "Sol": 2615,
      "Sugg": 2616,
      "TO": 2617,
      "TOR": 2618,
      "Tim": 2619,
      "WR": 2620,
      "Wor": 2621,
      "XPU": 2622,
      "]),": 2623,
      "_Z": 2624,
      "_q": 2625,
      "_or": 2626,
      "_path": 2627,
      "a5": 2628,
      "ather": 2629,
      "bi": 2630,
      "b13": 2631,
      "bf16": 2632,
      "barri": 2633,
      "cd": 2634,
      "cf": 2635,
      "c10": 2636,
      "dtypes": 2637,
      "either": 2638,
      "f9": 2639,
      "f_": 2640,
      "f90": 2641,
      "frm": 2642,
      "gar": 2643,
      "gits": 2644,
      "hin": 2645,
      "hid": 2646,
      "iv": 2647,
      "ifi": 2648,
      "jin": 2649,
      "lil": 2650,
      "lish": 2651,
      "mult": 2652,
      "o1": 2653,
      "ph": 2654,
      "right": 2655,
      "sed": 2656,
      "sign": 2657,
      "sni": 2658,
      "vend": 2659,
      "wp": 2660,
      "xis": 2661,
      "xfrm": 2662,
      "your": 2663,
      "})": 2664,
      "}\")": 2665,
      "independ": 2666,
      "though": 2667,
      "alle": 2668,
      "aligned": 2669,
      "ats": 2670,
      "repe": 2671,
      "refactor": 2672,
      "review": 2673,
      "ename": 2674,
      "environment": 2675,
      "eds": 2676,
      "arc": 2677,
      "arly": 2678,
      "asset": 2679,
      "ionError": 2680,
      "decode": 2681,
      "utor": 2682,
      "rodu": 2683,
      "unravel": 2684,
      "exit": 2685,
      "cking": 2686,
      "all_special_": 2687,
      "entire": 2688,
      "entry": 2689,
      "sock": 2690,
      "pear": 2691,
      "constru": 2692,
      "0x2e": 2693,
      "mov": 2694,
      "PyObject": 2695,
      "intent": 2696,
      "161": 2697,
      "uration": 2698,
      "~~~": 2699,
      "digits": 2700,
      "fact": 2701,
      "about": 2702,
      "runn": 2703,
      "proper": 2704,
      "121": 2705,
      "within": 2706,
      "reading": 2707,
      "__main": 2708,
      "clm": 2709,
      "vidia": 2710,
      "expr": 2711,
      "test_tagg": 2712,
      "fixes": 2713,
      "paralle": 2714,
      "ending": 2715,
      "keeps": 2716,
      "0x7b4": 2717,
      "siz": 2718,
      "simd": 2719,
      "later": 2720,
      "192": 2721,
      "locale": 2722,
      "ed_suffix": 2723,
      "timeout": 2724,
      "row_1d": 2725,
      "matching": 2726,
      "ured": 2727,
      "dtype_backend": 2728,
      "col_1d": 2729,
      "pointer": 2730,
      "ertionError": 2731,
      "configuration": 2732,
      "avo": 2733,
      "ween": 2734,
      "llm": 2735,
      "llvm": 2736,
      "_ptr": 2737,
      "Exce": 2738,
      "dern": 2739,
      "aplex": 2740,
      "appear": 2741,
      "ref_": 2742,
      "float32": 2743,
      "ALLED": 2744,
      "INST": 2745,
      "strings": 2746,
      "469": 2747,
      "sysconfig": 2748,
      "11__sanitizer": 2749,
      "^^^^^^^^^^^^^^^^^^^^^^^^": 2750,
      "Proposed": 2751,
      "mediate": 2752,
      "handler": 2753,
      "handling": 2754,
      "SDP": 2755,
      "router": 2756,
      "Note": 2757,
      "init__": 2758,
      "------------------": 2759,
      "dateutil": 2760,
      "integer": 2761,
      "5c520": 2762,
      "ATen": 2763,
      "documented": 2764,
      "indices_2d": 2765,
      "description": 2766,
      "cu128": 2767,
      "reproduced": 2768,
      "Why": 2769,
      "keys": 2770,
      "specific": 2771,
      "acceler": 2772,
      "4db13": 2773,
      "partial_": 2774,
      "sqlite": 2775,
      "post0": 2776,
      "Address": 2777,
      "autograd": 2778,
      "bbbbbbbb": 2779,
      "aaaaaaaa": 2780,
      "OpenBSD": 2781,
      "elements": 2782,
      "thesis": 2783,
      "device_map": 2784,
      "changes": 2785,
      "ersonaplex": 2786,
      "LOCALE": 2787,
      "pycore_call": 2788,
      "layoutlmv2": 2789,
      "layoutlmv3": 2790,
      "AssertionError": 2791,
      "flush": 2792,
      "reason": 2793,
      "Qwen3": 2794,
      "manywheel": 2795,
      "dimens": 2796,
      "compressor": 2797,
      "drop": 2798,
      "istic": 2799,
      "loss_function": 2800,
      "consistent": 2801,
      "empty": 2802,
      "posix_": 2803,
      "byteorder": 2804,
      "Converter": 2805,
      "3358f7": 2806,
      "Result": 2807,
      "VERSION": 2808,
      "hypo": 2809,
      "Modules": 2810,
      "16d0c89b875c520": 2811,
      "5af9da": 2812,
      "FreeBSD": 2813,
      "between": 2814,
      "numeric": 2815,
      "5ba4db13": 2816,
      "Affected": 2817,
      "LANG": 2818,
      "LC_ALL": 2819,
      "Metal": 2820,
      "Suggested": 2821,
      "Timestamp": 2822,
      "cf5af9da": 2823,
      "hidden": 2824,
      "lilt": 2825,
      "sniff": 2826,
      "unravel_index": 2827,
      "__main__": 2828,
      "test_tagged_suffix": 2829,
      "parallel": 2830,
      "INSTALLED": 2831,
      "3358f742f": 2832,
      "VERSIONS": 2833,
      "16d0c89b875c520cf5af9da": 2834,
      "5ba4db133358f742f": 2835,
      "16d0c89b875c520cf5af9da5ba4db133358f742f": 2836,
      "'/": 2837,
      ".**": 2838,
      "112": 2839,
      "3100": 2840,
      "41": 2841,
      "5lib": 2842,
      "63": 2843,
      "8c": 2844,
      "8e": 2845,
      ":-": 2846,
      "A1": 2847,
      "Asc": 2848,
      "Autom": 2849,
      "ASIMD": 2850,
      "B1": 2851,
      "But": 2852,
      "Bad": 2853,
      "BM3": 2854,
      "CC": 2855,
      "CR": 2856,
      "Cmp": 2857,
      "Core": 2858,
      "EP": 2859,
      "E_": 2860,
      "E_SU": 2861,
      "FAI": 2862,
      "Gener": 2863,
      "GATE": 2864,
      "Hub": 2865,
      "Hap": 2866,
      "HBM3": 2867,
      "Id": 2868,
      "IPython": 2869,
      "Image": 2870,
      "LON": 2871,
      "MO": 2872,
      "M_": 2873,
      "Me": 2874,
      "O_": 2875,
      "OOM": 2876,
      "Per": 2877,
      "Ple": 2878,
      "Range": 2879,
      "RRO": 2880,
      "Sum": 2881,
      "Since": 2882,
      "VM": 2883,
      "Warning": 2884,
      "YNA": 2885,
      "_f": 2886,
      "_t": 2887,
      "_log": 2888,
      "_max": 2889,
      "_group": 2890,
      "`;": 2891,
      "ained": 2892,
      "audio": 2893,
      "b5": 2894,
      "bre": 2895,
      "bol": 2896,
      "bage": 2897,
      "c5c": 2898,
      "dq": 2899,
      "eq": 2900,
      "eck": 2901,
      "fss": 2902,
      "g2": 2903,
      "gres": 2904,
      "gcs": 2905,
      "give": 2906,
      "glibc": 2907,
      "hud": 2908,
      "ime": 2909,
      "ja2": 2910,
      "ld": 2911,
      "lxml": 2912,
      "mary": 2913,
      "more": 2914,
      "nex": 2915,
      "nul": 2916,
      "nci": 2917,
      "null": 2918,
      "odf": 2919,
      "plot": 2920,
      "place": 2921,
      "personaplex": 2922,
      "sse": 2923,
      "sent": 2924,
      "sla": 2925,
      "slow": 2926,
      "s3f": 2927,
      "tal": 2928,
      "ted": 2929,
      "tlen": 2930,
      "txt": 2931,
      "ups": 2932,
      "xarray": 2933,
      "ymmetricMemory": 2934,
      "ycop": 2935,
      "zstandard": 2936,
      "inc": 2937,
      "ines": 2938,
      "three": 2939,
      "ery": 2940,
      "ored_": 2941,
      "alche": 2942,
      "atal": 2943,
      "attribute": 2944,
      "pyread": 2945,
      "pyconfig": 2946,
      "pyxls": 2947,
      "pymy": 2948,
      "pytz": 2949,
      "pyice": 2950,
      "pyqt": 2951,
      "isper": 2952,
      "itect": 2953,
      "defin": 2954,
      "chan": 2955,
      "ctool": 2956,
      "rove": 2957,
      "store": 2958,
      "second": 2959,
      "several": 2960,
      "copy": 2961,
      "codes": 2962,
      "adata": 2963,
      "fiel": 2964,
      "touch": 2965,
      "entran": 2966,
      "sum": 2967,
      "sure": 2968,
      "sume": 2969,
      "succe": 2970,
      "0x350": 2971,
      "pool": 2972,
      "modern": 2973,
      "introdu": 2974,
      "valsh": 2975,
      "trial": 2976,
      "ffine": 2977,
      "^^^^^^^": 2978,
      "share": 2979,
      "htable": 2980,
      "positive": 2981,
      "prompt": 2982,
      "whisper": 2983,
      "resh": 2984,
      "resha": 2985,
      "1252": 2986,
      "calling": 2987,
      "pty": 2988,
      "reads": 2989,
      "saved": 2990,
      "safet": 2991,
      "psycop": 2992,
      "numba": 2993,
      "numexpr": 2994,
      "torch_": 2995,
      "Instr": 2996,
      "happ": 2997,
      "qui": 2998,
      "quet": 2999,
      "ager": 3000,
      "comment": 3001,
      "parquet": 3002,
      "typeobject": 3003,
      "complex": 3004,
      "135": 3005,
      "etree": 3006,
      "tafter": 3007,
      "assist": 3008,
      "Err": 3009,
      "_mm": 3010,
      "_mask": 3011,
      "amine": 3012,
      "0x7f4ff4219": 3013,
      "symmetric": 3014,
      "row_2d": 3015,
      "Reg": 3016,
      "logic": 3017,
      "set_": 3018,
      "888": 3019,
      "hashtable": 3020,
      "col_2d": 3021,
      "points": 3022,
      "DecodeError": 3023,
      "term": 3024,
      "result_": 3025,
      "funcs": 3026,
      "functool": 3027,
      "paths": 3028,
      "ignore": 3029,
      "appro": 3030,
      "inputs": 3031,
      "interrupt": 3032,
      "actually": 3033,
      "objects": 3034,
      "INE": 3035,
      "shifted": 3036,
      "html5lib": 3037,
      "~~~~~~~~~~~~": 3038,
      "0x7f4ff43a": 3039,
      "ORT": 3040,
      "_cy": 3041,
      "appli": 3042,
      "467": 3043,
      "AST": 3044,
      "_na": 3045,
      "_name": 3046,
      "graph": 3047,
      "_vl": 3048,
      "kernels": 3049,
      "writer": 3050,
      "relevant": 3051,
      "33e": 3052,
      "SymmetricMemory": 3053,
      "cuda": 3054,
      "look": 3055,
      "libcud": 3056,
      "kernel32": 3057,
      "reproduction": 3058,
      "missing": 3059,
      "variable": 3060,
      "0x7f4ff40e26": 3061,
      "calamine": 3062,
      "tz_convert": 3063,
      "xlrd": 3064,
      "subclass": 3065,
      "xlsxwriter": 3066,
      "sqlalche": 3067,
      "repro_": 3068,
      "postgres": 3069,
      "samples": 3070,
      "sphin": 3071,
      "Fix": 3072,
      "leak": 3073,
      "changed": 3074,
      "targets": 3075,
      "_COM": 3076,
      "ec58": 3077,
      "matplot": 3078,
      "8192": 3079,
      "_DYNA": 3080,
      "berg": 3081,
      "eb2c": 3082,
      "---|---|": 3083,
      "Assignment": 3084,
      "GitHub": 3085,
      "PCbuild": 3086,
      "bs4": 3087,
      "eigvalsh": 3088,
      "normal": 3089,
      "qtpy": 3090,
      "tables": 3091,
      "tabulate": 3092,
      "asynci": 3093,
      "(...)`": 3094,
      "cp315": 3095,
      "fastparquet": 3096,
      "skips": 3097,
      "_Py_VectorCall_StackRefSteal": 3098,
      "ACK": 3099,
      "Click": 3100,
      "bmi": 3101,
      "bottlen": 3102,
      "fill_value": 3103,
      "leading": 3104,
      "terminal": 3105,
      "0x10023ec58": 3106,
      "destro": 3107,
      "wrapp": 3108,
      "Build": 3109,
      "metadata": 3110,
      "compatible": 3111,
      "inherit": 3112,
      "Handle": 3113,
      "Operating": 3114,
      "allowed": 3115,
      "0x10261ec5c": 3116,
      "interpreter": 3117,
      "UnicodeDecodeError": 3118,
      "2172": 3119,
      "OMPI_COM": 3120,
      "WeightConverter": 3121,
      "bnb_4bit_compute_dtype": 3122,
      "DISABLED": 3123,
      "Cannot": 3124,
      "TODO": 3125,
      "TORCH": 3126,
      "garbage": 3127,
      "jinja2": 3128,
      "vendored": 3129,
      "accelerator": 3130,
      "hypothesis": 3131,
      "Ascend": 3132,
      "BadCmp": 3133,
      "E_SURRO": 3134,
      "Happy": 3135,
      "LONE_SURRO": 3136,
      "Please": 3137,
      "RangeIndex": 3138,
      "Summary": 3139,
      "brea": 3140,
      "fsspec": 3141,
      "gcsfs": 3142,
      "nextafter": 3143,
      "odfpy": 3144,
      "s3fs": 3145,
      "pyreadstat": 3146,
      "pyxlsb": 3147,
      "pymysql": 3148,
      "pyiceberg": 3149,
      "pyqt5": 3150,
      "reshape": 3151,
      "safetensors": 3152,
      "psycopg2": 3153,
      "functools": 3154,
      "sqlalchemy": 3155,
      "postgresql": 3156,
      "sphinx": 3157,
      "matplotlib": 3158,
      "asyncio": 3159,
      "bottleneck": 3160,
      "OMPI_COMM_": 3161,
      "LONE_SURROGATE": 3162,
      "*.": 3163,
      "2f": 3164,
      "210": 3165,
      "347": 3166,
      "4c": 3167,
      "51": 3168,
      "77": 3169,
      "92": 3170,
      "={": 3171,
      "Cha": 3172,
      "Do": 3173,
      "DOC": 3174,
      "Darwin": 3175,
      "EE": 3176,
      "FS": 3177,
      "Fe": 3178,
      "FSDP": 3179,
      "GiB": 3180,
      "GCC": 3181,
      "Hz": 3182,
      "IB": 3183,
      "ID": 3184,
      "IS": 3185,
      "Jul": 3186,
      "L6": 3187,
      "Len": 3188,
      "Mit": 3189,
      "MHz": 3190,
      "NPU": 3191,
      "NOT": 3192,
      "OK": 3193,
      "PP": 3194,
      "Router": 3195,
      "SMP": 3196,
      "Two": 3197,
      "Tasks": 3198,
      "[-": 3199,
      "_0": 3200,
      "_W": 3201,
      "_o": 3202,
      "_exp": 3203,
      "_sy": 3204,
      "_tensor": 3205,
      "_weights": 3206,
      "_digits": 3207,
      "bl": 3208,
      "bw": 3209,
      "brow": 3210,
      "b3c": 3211,
      "cx": 3212,
      "cre": 3213,
      "cing": 3214,
      "csrc": 3215,
      "d84": 3216,
      "e50": 3217,
      "earch": 3218,
      "gap": 3219,
      "gative": 3220,
      "hig": 3221,
      "ives": 3222,
      "k_": 3223,
      "lone": 3224,
      "mal_": 3225,
      "mba": 3226,
      "mbol": 3227,
      "nan": 3228,
      "npt": 3229,
      "pin": 3230,
      "pag": 3231,
      "pub": 3232,
      "past": 3233,
      "pure": 3234,
      "prec": 3235,
      "smo": 3236,
      "simp": 3237,
      "tre": 3238,
      "table": 3239,
      "uine": 3240,
      "ual_": 3241,
      "vector": 3242,
      "wcs": 3243,
      "ymo": 3244,
      "inel": 3245,
      "info": 3246,
      "incorrect": 3247,
      "information": 3248,
      "on_": 3249,
      "onymo": 3250,
      "ale": 3251,
      "anonymo": 3252,
      "atial": 3253,
      "ences": 3254,
      "isson": 3255,
      "dec": 3256,
      "stay": 3257,
      "stud": 3258,
      "stale": 3259,
      "section": 3260,
      "search": 3261,
      "ilKey": 3262,
      "means": 3263,
      "mpi": 3264,
      "testCmsgTrunc": 3265,
      "top": 3266,
      "mapped": 3267,
      "peed": 3268,
      "laps": 3269,
      "heck": 3270,
      "tran": 3271,
      "true": 3272,
      "urs": 3273,
      "dow": 3274,
      "show": 3275,
      "fam": 3276,
      "abb3c": 3277,
      "project": 3278,
      "research": 3279,
      "126": 3280,
      "called": 3281,
      "**`": 3282,
      "number": 3283,
      "clone": 3284,
      "vide": 3285,
      "note": 3286,
      "Information": 3287,
      "dupl": 3288,
      "impact": 3289,
      "test_errno": 3290,
      "2025": 3291,
      "negative": 3292,
      "corrupt": 3293,
      "pip3": 3294,
      "csgraph": 3295,
      "packed": 3296,
      "sient": 3297,
      "getversion": 3298,
      "join": 3299,
      "That": 3300,
      "0x7f4ff3a": 3301,
      "100cb": 3302,
      "argmax": 3303,
      "upd": 3304,
      "setup": 3305,
      "setting": 3306,
      "trace": 3307,
      "ify": 3308,
      "discover": 3309,
      "access": 3310,
      "Decimal": 3311,
      "less": 3312,
      "wever": 3313,
      "raising": 3314,
      "_pad": 3315,
      "Extension": 3316,
      "f2fea": 3317,
      "f2100cb": 3318,
      "listener": 3319,
      "30b5": 3320,
      "win32": 3321,
      "window": 3322,
      "temp": 3323,
      "headers": 3324,
      "inedAssignment": 3325,
      "find_lib": 3326,
      "dddd": 3327,
      "ustom": 3328,
      "IndexError": 3329,
      "validation": 3330,
      "AND": 3331,
      "OSError": 3332,
      "Tests": 3333,
      "newer_": 3334,
      "functions": 3335,
      "installed": 3336,
      "22d84": 3337,
      "ccurre": 3338,
      "passes": 3339,
      "static": 3340,
      "overflow": 3341,
      "imal": 3342,
      "predict": 3343,
      "READ": 3344,
      "hello": 3345,
      "5c0": 3346,
      "_mem": 3347,
      "encounter": 3348,
      "_dead": 3349,
      "depth": 3350,
      "get_newer_": 3351,
      "whole": 3352,
      "systems": 3353,
      "calc": 3354,
      "manual": 3355,
      "manual_": 3356,
      "spatial": 3357,
      "contained": 3358,
      "contains": 3359,
      "arguments": 3360,
      "72f2fea": 3361,
      "91530b5": 3362,
      "leaks": 3363,
      "768": 3364,
      "Because": 3365,
      "remote": 3366,
      "segfault": 3367,
      "obj": 3368,
      "officially": 3369,
      "sorting": 3370,
      "reasing": 3371,
      "boundary": 3372,
      "tributeError": 3373,
      "accepts": 3374,
      "_Py_VectorCallInstr": 3375,
      "preser": 3376,
      "0x0000790a4": 3377,
      "6548": 3378,
      "AttributeError": 3379,
      "Bytes": 3380,
      "0x10340": 3381,
      "_str_digits": 3382,
      "broken": 3383,
      "controll": 3384,
      "legacy": 3385,
      "clean": 3386,
      "tuples": 3387,
      "lazy": 3388,
      "umentation_StackRefSteal": 3389,
      "Linear4bit": 3390,
      "EvilKey": 3391,
      "Work": 3392,
      "barrier": 3393,
      "c10d": 3394,
      "independent": 3395,
      "repeated": 3396,
      "utorial": 3397,
      "4695c0": 3398,
      "AddressSanitizer": 3399,
      "CRT": 3400,
      "EPv": 3401,
      "_max_str_digits": 3402,
      "increasing": 3403,
      "itecture": 3404,
      "entrant": 3405,
      "introduced": 3406,
      "happens": 3407,
      "lookup": 3408,
      "ChainedAssignment": 3409,
      "Feature": 3410,
      "Mitigation": 3411,
      "_symbol": 3412,
      "browser": 3413,
      "e504695c0": 3414,
      "nptl": 3415,
      "smoke": 3416,
      "anonymous": 3417,
      "abb3cf2100cb": 3418,
      "duplic": 3419,
      "find_library": 3420,
      "22d84e504695c0": 3421,
      "encountered": 3422,
      "get_newer_options": 3423,
      "manual_seed": 3424,
      "72f2fea91530b5": 3425,
      "_Py_VectorCallInstrumentation_StackRefSteal": 3426,
      "0x103405": 3427,
      "ChainedAssignmentError": 3428,
      "_symbols": 3429,
      "abb3cf2100cb22d84e504695c0": 3430,
      "72f2fea91530b5abb3cf2100cb22d84e504695c0": 3431,
      "\"].": 3432,
      "&&": 3433,
      "'.": 3434,
      "'`": 3435,
      "(*": 3436,
      ")`,": 3437,
      ".,": 3438,
      "0d": 3439,
      "2D": 3440,
      "248": 3441,
      "2PY": 3442,
      "3e": 3443,
      "345": 3444,
      "5Z": 3445,
      "62": 3446,
      "7a0": 3447,
      "81": 3448,
      "800": 3449,
      "9b": 3450,
      "914": 3451,
      "913": 3452,
      ":]": 3453,
      "<-": 3454,
      ">\",": 3455,
      "??": 3456,
      "A4": 3457,
      "A5": 3458,
      "ARE": 3459,
      "B4": 3460,
      "B5": 3461,
      "BF": 3462,
      "C3": 3463,
      "C4": 3464,
      "C5": 3465,
      "CE": 3466,
      "Could": 3467,
      "Cross": 3468,
      "Dtype": 3469,
      "Down": 3470,
      "DWR": 3471,
      "FP": 3472,
      "Fla": 3473,
      "Fatal": 3474,
      "F2PY": 3475,
      "GLU": 3476,
      "HI": 3477,
      "Ho": 3478,
      "LO": 3479,
      "L18": 3480,
      "Map": 3481,
      "MAP": 3482,
      "MAST": 3483,
      "Of": 3484,
      "Out": 3485,
      "Other": 3486,
      "PA": 3487,
      "Pre": 3488,
      "RS": 3489,
      "SV": 3490,
      "Scal": 3491,
      "SSE": 3492,
      "Stack": 3493,
      "Speech": 3494,
      "Spec": 3495,
      "SQu": 3496,
      "TM": 3497,
      "TS": 3498,
      "Tue": 3499,
      "Table": 3500,
      "Text": 3501,
      "Time": 3502,
      "T_DYNA": 3503,
      "UN": 3504,
      "VAL": 3505,
      "_P": 3506,
      "_V": 3507,
      "_in": 3508,
      "_is": 3509,
      "_po": 3510,
      "_linalg": 3511,
      "_flag": 3512,
      "_dict": 3513,
      "_against": 3514,
      "_thread_": 3515,
      "_cover": 3516,
      "a8": 3517,
      "autom": 3518,
      "a136": 3519,
      "br": 3520,
      "bas": 3521,
      "blas": 3522,
      "c_": 3523,
      "cp": 3524,
      "cmap": 3525,
      "cython": 3526,
      "d4": 3527,
      "d64": 3528,
      "d2308": 3529,
      "e4": 3530,
      "els": 3531,
      "effect": 3532,
      "fli": 3533,
      "false": 3534,
      "ger": 3535,
      "gil": 3536,
      "grow": 3537,
      "gates": 3538,
      "gather": 3539,
      "h1": 3540,
      "hi": 3541,
      "hon": 3542,
      "i5": 3543,
      "ide": 3544,
      "ially": 3545,
      "iPN": 3546,
      "lwork": 3547,
      "larg": 3548,
      "might": 3549,
      "mask": 3550,
      "merge": 3551,
      "nv": 3552,
      "ned": 3553,
      "nn_": 3554,
      "og": 3555,
      "ok": 3556,
      "pse": 3557,
      "pra": 3558,
      "plain": 3559,
      "pending": 3560,
      "sit": 3561,
      "spa": 3562,
      "tend": 3563,
      "turn": 3564,
      "vers": 3565,
      "wint": 3566,
      "were": 3567,
      "xsave": 3568,
      "ys": 3569,
      "in_": 3570,
      "ink": 3571,
      "thand": 3572,
      "orith": 3573,
      "anced": 3574,
      "aten": 3575,
      "atic": 3576,
      "attent": 3577,
      "recomm": 3578,
      "ism": 3579,
      "ision": 3580,
      "edBlas": 3581,
      "ed_mm": 3582,
      "ed7a0": 3583,
      "their": 3584,
      "arange": 3585,
      "asked": 3586,
      "least": 3587,
      "leav": 3588,
      "iting": 3589,
      "itch": 3590,
      "deep": 3591,
      "uts": 3592,
      "utation": 3593,
      "root": 3594,
      "00U": 3595,
      "0001": 3596,
      "uname": 3597,
      "unlimit": 3598,
      "unchanged": 3599,
      "iling": 3600,
      "mem": 3601,
      "method": 3602,
      "mechan": 3603,
      "rames": 3604,
      "admap": 3605,
      "too": 3606,
      "tolist": 3607,
      "entinel": 3608,
      "ular": 3609,
      "0x8": 3610,
      "lama": 3611,
      "intended": 3612,
      "lib64": 3613,
      "heur": 3614,
      "link": 3615,
      "doe": 3616,
      "dot": 3617,
      "shad": 3618,
      "fa9c": 3619,
      "abc": 3620,
      "ably": 3621,
      "ables": 3622,
      "proj": 3623,
      "propag": 3624,
      "why": 3625,
      "125": 3626,
      "127": 3627,
      "came": 3628,
      "__init__": 3629,
      "ppa": 3630,
      "world": 3631,
      "Inter": 3632,
      "useful": 3633,
      "use_na": 3634,
      "quire": 3635,
      "improve": 3636,
      "test_ctypes": 3637,
      "test_call_": 3638,
      "test_autograd": 3639,
      "test_functools": 3640,
      "2020": 3641,
      "ister": 3642,
      "nel": 3643,
      "_PyVector": 3644,
      "157": 3645,
      "parser": 3646,
      "130": 3647,
      "takes": 3648,
      "oper": 3649,
      "build_version": 3650,
      "ride": 3651,
      "_mutation": 3652,
      "amd64": 3653,
      "npu": 3654,
      "per_": 3655,
      "live": 3656,
      "syn": 3657,
      "symm": 3658,
      "Related": 3659,
      "upstream": 3660,
      "undant": 3661,
      "threaded": 3662,
      "distribution": 3663,
      "PREE": 3664,
      "izing": 3665,
      "206": 3666,
      "fine": 3667,
      "final": 3668,
      "results": 3669,
      "ught": 3670,
      "f2cmap": 3671,
      "armed": 3672,
      "_sigin": 3673,
      "_sentinel": 3674,
      "bool": 3675,
      "interpo": 3676,
      "checkpoint_path": 3677,
      "4728": 3678,
      "370": 3679,
      "370f": 3680,
      "INVAL": 3681,
      "affects": 3682,
      "ddbc": 3683,
      "fo_pad": 3684,
      "docstring": 3685,
      "0x7f4ff4390": 3686,
      "25a136": 3687,
      "_cpu": 3688,
      "apply": 3689,
      "allocate": 3690,
      "untu": 3691,
      "TestAuto": 3692,
      "TestComp": 3693,
      "_RDWR": 3694,
      "_batch": 3695,
      "algorith": 3696,
      "Problem": 3697,
      "max_me": 3698,
      "handles": 3699,
      "itionally": 3700,
      "274e": 3701,
      "50GH": 3702,
      "877": 3703,
      "MPT_DYNA": 3704,
      "lexFun": 3705,
      "groups": 3706,
      "0x7f4ff40ddbc": 3707,
      "override": 3708,
      "added": 3709,
      "23__sanitizer": 3710,
      "immediate": 3711,
      "sanit": 3712,
      "num_image": 3713,
      "workspace": 3714,
      "describ": 3715,
      "mypy": 3716,
      "dirs": 3717,
      "reproduce": 3718,
      "ength": 3719,
      "engines": 3720,
      "get_errno": 3721,
      "multiarray": 3722,
      "directory": 3723,
      "avx512_v": 3724,
      "Int64": 3725,
      "4d85": 3726,
      "841": 3727,
      "wheels": 3728,
      "WORLD_RANK": 3729,
      "sample": 3730,
      "integrate": 3731,
      "Additional": 3732,
      "save_": 3733,
      "save_pretrained": 3734,
      "allocation_cover": 3735,
      "SystemError": 3736,
      "7200U": 3737,
      "leaked": 3738,
      "RuntimeWarning": 3739,
      "queue": 3740,
      "ec488": 3741,
      "something": 3742,
      "Arrow": 3743,
      "restored_": 3744,
      "needs": 3745,
      "separately": 3746,
      "2309": 3747,
      "_TI": 3748,
      "SIGINT": 3749,
      "fp8": 3750,
      "fp16": 3751,
      "longer": 3752,
      "AVX512_": 3753,
      "Accept": 3754,
      "_hub": 3755,
      "fully": 3756,
      "vision": 3757,
      "vision_": 3758,
      "chars": 3759,
      "tools": 3760,
      "safety_against": 3761,
      "Second": 3762,
      "normal_": 3763,
      "params": 3764,
      "computation": 3765,
      "Import": 3766,
      "struct": 3767,
      "handle_count": 3768,
      "Client": 3769,
      "MIC": 3770,
      "_000_000": 3771,
      "mark": 3772,
      "present": 3773,
      "trying": 3774,
      "guards": 3775,
      "green": 3776,
      "including": 3777,
      "call_Call": 3778,
      "Processor": 3779,
      "categories": 3780,
      "categorical": 3781,
      "quantization_config": 3782,
      "NCCLAlloc": 3783,
      "NCCLSymmetricMemory": 3784,
      "pypi_0": 3785,
      "parameter": 3786,
      "parameters": 3787,
      "Observed": 3788,
      "POSI": 3789,
      "_reentrant": 3790,
      "_scaled_mm": 3791,
      "_get_build_version": 3792,
      "constant": 3793,
      "conventions": 3794,
      "question": 3795,
      "find_allocation_cover": 3796,
      "functionality": 3797,
      "NEON": 3798,
      "NUMA": 3799,
      "_ZN": 3800,
      "a5e": 3801,
      "signature": 3802,
      "arcco": 3803,
      "entirely": 3804,
      "0x7b4fea": 3805,
      "11__sanitizer23__sanitizer": 3806,
      "partial_vector": 3807,
      "Automated": 3808,
      "glibc2": 3809,
      "slave": 3810,
      "shared": 3811,
      "torch_npu": 3812,
      "Errno": 3813,
      "result_queue": 3814,
      "~~~~~~~~~~~~~~~": 3815,
      "libcudnn_": 3816,
      "repro_mod": 3817,
      "wrapper": 3818,
      "BuildId": 3819,
      "study": 3820,
      "family": 3821,
      "calculate": 3822,
      "GLUE": 3823,
      "However": 3824,
      "MASTER": 3825,
      "Otherwise": 3826,
      "ScaledBlas": 3827,
      "SQuAD": 3828,
      "cp1252": 3829,
      "d230825a136": 3830,
      "iPN11__sanitizer23__sanitizer": 3831,
      "wintypes": 3832,
      "ed7a0a5e": 3833,
      "fa9c4d85": 3834,
      "use_na_sentinel": 3835,
      "test_call_safety_against": 3836,
      "_PyVectorcall_Call": 3837,
      "symm_mem": 3838,
      "PREEMPT_DYNA": 3839,
      "_siginfo_pad": 3840,
      "370fed7a0a5e": 3841,
      "TestAutograd": 3842,
      "TestComplexFun": 3843,
      "max_memory": 3844,
      "274eec488": 3845,
      "50GHz": 3846,
      "immediately": 3847,
      "num_image_tokens": 3848,
      "NCCLAllocMap": 3849,
      "_reentrant_mutation": 3850,
      "partial_vectorcall": 3851,
      "d230825a136fa9c4d85": 3852,
      "iPN11__sanitizer23__sanitizer_siginfo_pad": 3853,
      "test_call_safety_against_reentrant_mutation": 3854,
      "PREEMPT_DYNAMIC": 3855,
      "TestComplexFunctions": 3856,
      "274eec488d230825a136fa9c4d85": 3857,
      "iPN11__sanitizer23__sanitizer_siginfo_padEPv": 3858,
      "274eec488d230825a136fa9c4d85370fed7a0a5e": 3859,
      "\".": 3860,
      "\"\\": 3861,
      "\"...": 3862,
      "({": 3863,
      ")).": 3864,
      "-<": 3865,
      "/*": 3866,
      "/`": 3867,
      "2a": 3868,
      "2b": 3869,
      "236": 3870,
      "3D": 3871,
      "3Z": 3872,
      "3_": 3873,
      "302": 3874,
      "410": 3875,
      "4M3": 3876,
      "61": 3877,
      "697": 3878,
      "74": 3879,
      "726": 3880,
      "81e": 3881,
      "95": 3882,
      "98": 3883,
      "9eb2c": 3884,
      ":\")": 3885,
      "=<": 3886,
      ">...": 3887,
      "?):": 3888,
      "As": 3889,
      "Apr": 3890,
      "All": 3891,
      "BL": 3892,
      "Bo": 3893,
      "CD": 3894,
      "Cy": 3895,
      "Date": 3896,
      "EC": 3897,
      "Eig": 3898,
      "Ent": 3899,
      "Every": 3900,
      "E4M3": 3901,
      "FI": 3902,
      "Found": 3903,
      "Huggingface": 3904,
      "L20": 3905,
      "LLM": 3906,
      "LAT": 3907,
      "Main": 3908,
      "Merge": 3909,
      "Name": 3910,
      "Over": 3911,
      "Occurre": 3912,
      "PB": 3913,
      "Part": 3914,
      "ROR": 3915,
      "RANK": 3916,
      "Set": 3917,
      "Same": 3918,
      "Seg": 3919,
      "Saf": 3920,
      "Slot": 3921,
      "Speed": 3922,
      "TI": 3923,
      "T_": 3924,
      "Task": 3925,
      "UP": 3926,
      "Zip": 3927,
      "[#": 3928,
      "[]": 3929,
      "_2": 3930,
      "_al": 3931,
      "_In": 3932,
      "_imp": 3933,
      "_get": 3934,
      "_up": 3935,
      "_open": 3936,
      "_ref": 3937,
      "_class": 3938,
      "_dir": 3939,
      "_hash": 3940,
      "_tensors": 3941,
      "_initial": 3942,
      "_unique": 3943,
      "_check_": 3944,
      "_surrogate": 3945,
      "_shutdown": 3946,
      "`):": 3947,
      "apack": 3948,
      "away": 3949,
      "axis": 3950,
      "b8": 3951,
      "bp": 3952,
      "ben": 3953,
      "bar": 3954,
      "bra": 3955,
      "bda": 3956,
      "bdd": 3957,
      "c0": 3958,
      "catch": 3959,
      "candidates": 3960,
      "dra": 3961,
      "db4": 3962,
      "e8": 3963,
      "evalu": 3964,
      "easy": 3965,
      "early": 3966,
      "elaps": 3967,
      "f6": 3968,
      "fre": 3969,
      "fing": 3970,
      "fut": 3971,
      "fron": 3972,
      "fused": 3973,
      "h3": 3974,
      "h4": 3975,
      "hal": 3976,
      "hit": 3977,
      "ior": 3978,
      "ires": 3979,
      "kexec": 3980,
      "masked": 3981,
      "ndi": 3982,
      "nip": 3983,
      "nvidia": 3984,
      "ops": 3985,
      "pk": 3986,
      "ptr": 3987,
      "plex": 3988,
      "rng": 3989,
      "raries": 3990,
      "send": 3991,
      "space": 3992,
      "snip": 3993,
      "tm": 3994,
      "uth": 3995,
      "uan": 3996,
      "ucrt": 3997,
      "ufunc": 3998,
      "ved_": 3999,
      "wa": 4000,
      "wb": 4001,
      "wer": 4002,
      "want": 4003,
      "x0": 4004,
      "x64": 4005,
      "yuan": 4006,
      "zh": 4007,
      "zip": 4008,
      "|---|---|": 4009,
      "}\"": 4010,
      "incomplete": 4011,
      "inery": 4012,
      "incompatible": 4013,
      "onent": 4014,
      "eri": 4015,
      "erprint": 4016,
      "erence": 4017,
      "er_d": 4018,
      "ories": 4019,
      "alt": 4020,
      "anager": 4021,
      "repr": 4022,
      "reli": 4023,
      "reach": 4024,
      "reconstru": 4025,
      "pytest_": 4026,
      "pymain": 4027,
      "py3_": 4028,
      "en_": 4029,
      "ency": 4030,
      "is_c": 4031,
      "edge": 4032,
      "edRouter": 4033,
      "assume": 4034,
      "leep": 4035,
      "itor": 4036,
      "de1": 4037,
      "deq": 4038,
      "dead": 4039,
      "chained": 4040,
      "andbytes": 4041,
      "cted": 4042,
      "sts": 4043,
      "stop": 4044,
      "stder": 4045,
      "stored": 4046,
      "unaffected": 4047,
      "unrelated": 4048,
      "ibp": 4049,
      "ibly": 4050,
      "seen": 4051,
      "seem": 4052,
      "secur": 4053,
      "exc": 4054,
      "extens": 4055,
      "ilar": 4056,
      "metho": 4057,
      "pythonrun": 4058,
      "fim": 4059,
      "to_r": 4060,
      "total": 4061,
      "entri": 4062,
      "noti": 4063,
      "mamba": 4064,
      "conds": 4065,
      "concer": 4066,
      "0x5": 4067,
      "0x19": 4068,
      "===": 4069,
      "lack": 4070,
      "lapack": 4071,
      "lable": 4072,
      "PyEval": 4073,
      "gemm": 4074,
      "libsystem": 4075,
      "libstd": 4076,
      "libraries": 4077,
      "us1": 4078,
      "ithreading": 4079,
      "heet": 4080,
      "heap": 4081,
      "uring_": 4082,
      "short": 4083,
      "ately": 4084,
      "runtest": 4085,
      "whites": 4086,
      "outcome": 4087,
      "capi": 4088,
      "ca79": 4089,
      "causes": 4090,
      "caught": 4091,
      "says": 4092,
      "saved_": 4093,
      "__name": 4094,
      "__GI": 4095,
      "ides": 4096,
      "vious": 4097,
      "use_": 4098,
      "due": 4099,
      "ductor": 4100,
      "quant": 4101,
      "agree": 4102,
      "test_mult": 4103,
      "test_eigvalsh": 4104,
      "test_to_r": 4105,
      "test_saved_": 4106,
      "old": 4107,
      "cording": 4108,
      "checking": 4109,
      "hours": 4110,
      "131": 4111,
      "etensors": 4112,
      "tail": 4113,
      "daem": 4114,
      "202607": 4115,
      "opens": 4116,
      "buildbot": 4117,
      "_manager": 4118,
      "asting": 4119,
      "190": 4120,
      "193": 4121,
      "ed_gemm": 4122,
      "0x7f4ff455": 4123,
      "0x7f4ff44e": 4124,
      "sync": 4125,
      "timeIndex": 4126,
      "...,": 4127,
      "...<": 4128,
      "argmin": 4129,
      "MoE": 4130,
      "el_": 4131,
      "replace": 4132,
      "john": 4133,
      "lower": 4134,
      "selves": 4135,
      "track": 4136,
      "traceback": 4137,
      "transl": 4138,
      "translate": 4139,
      "887": 4140,
      "has_": 4141,
      "produces": 4142,
      "ardless": 4143,
      "tensor_hooks": 4144,
      "acquire": 4145,
      "2048": 4146,
      "204c": 4147,
      "Debug": 4148,
      "Deep": 4149,
      "Device": 4150,
      "generic": 4151,
      "avigation": 4152,
      "_pg": 4153,
      "ive_c": 4154,
      "lists": 4155,
      "ignored": 4156,
      "except": 4157,
      "_single": 4158,
      "openmpi": 4159,
      "refresh": 4160,
      "scalapack": 4161,
      "wind": 4162,
      "Context": 4163,
      "0x00000000": 4164,
      "ressed": 4165,
      "regardless": 4166,
      "run_repro": 4167,
      "run_clm": 4168,
      "Callable": 4169,
      "actual": 4170,
      "bitwise": 4171,
      "0x7f4ff43aa": 4172,
      "serv": 4173,
      "serve": 4174,
      "applic": 4175,
      "filter": 4176,
      "filename": 4177,
      "validates": 4178,
      "randint": 4179,
      "480": 4180,
      "ASCI": 4181,
      "TestClient": 4182,
      "process_group": 4183,
      "^^^^^^^^^^^^^^^^^^^^": 4184,
      "^^^^^^^^^^^^^^^^^^^^^^^^^^^^^^^^": 4185,
      "_bf16": 4186,
      "MoshiForCausalLM": 4187,
      "224": 4188,
      "_nd": 4189,
      "routing": 4190,
      "MSymmetricMemory": 4191,
      "0x7f4ff40de1": 4192,
      "exceptions": 4193,
      "architecture": 4194,
      "adding": 4195,
      "batched": 4196,
      "preprocessing": 4197,
      "previous": 4198,
      "REA": 4199,
      "Cache": 4200,
      "released": 4201,
      "convert_": 4202,
      "_to_c": 4203,
      "encoder": 4204,
      "_detect": 4205,
      "identically": 4206,
      "identifi": 4207,
      "ERROR": 4208,
      "dirty": 4209,
      "_no_leak": 4210,
      "modeling_moshi": 4211,
      "modeling_utils": 4212,
      "f2py2e": 4213,
      "groupby": 4214,
      "malfet": 4215,
      "sheet": 4216,
      "variant": 4217,
      "0x7f4ff40e2308": 4218,
      "closed": 4219,
      "multiple": 4220,
      "requests": 4221,
      "ForCausalLMLoss": 4222,
      "command": 4223,
      "column": 4224,
      "_from_iter": 4225,
      "_multicall": 4226,
      "Altern": 4227,
      "downstream": 4228,
      "sampling": 4229,
      "irshad": 4230,
      "machinery": 4231,
      "builtin_": 4232,
      "rank0": 4233,
      "rank_pg": 4234,
      "Load": 4235,
      "bitsandbytes": 4236,
      "falls": 4237,
      "Apple": 4238,
      "++.": 4239,
      "know": 4240,
      "removes": 4241,
      "lambda": 4242,
      "optimized": 4243,
      "_audio": 4244,
      "cludedRouter": 4245,
      "item__": 4246,
      "needed": 4247,
      "Any": 4248,
      "ToText": 4249,
      "SIGSEGV": 4250,
      "0x102628": 4251,
      "8193": 4252,
      "GitForCausalLM": 4253,
      "pcid": 4254,
      "invest": 4255,
      "0x0000000000000000": 4256,
      "factorize_from_iter": 4257,
      "eigen": 4258,
      "param_flag": 4259,
      "computes": 4260,
      "surrogates": 4261,
      "_hookexec": 4262,
      "_FLO": 4263,
      "cp316": 4264,
      "skipped": 4265,
      "ARN": 4266,
      "launcher": 4267,
      "terminate": 4268,
      "0x0000790a116": 4269,
      "82204c": 4270,
      "Minimal": 4271,
      "cross_ent": 4272,
      "naive": 4273,
      "wrap": 4274,
      "threads_shutdown": 4275,
      "tinmodule": 4276,
      "145410": 4277,
      "dispatched": 4278,
      "discuss": 4279,
      "discussion": 4280,
      "State": 4281,
      "lands": 4282,
      "redundant": 4283,
      "sequent": 4284,
      "load_error": 4285,
      "KyutaiSpeech": 4286,
      "LLVM": 4287,
      "_enter_d": 4288,
      "_callers": 4289,
      "_extra_enter_d": 4290,
      "ropyLoss": 4291,
      "performance": 4292,
      "loops_exp": 4293,
      "containing": 4294,
      "NVSHMEM": 4295,
      "NVSHMEMSymmetricMemory": 4296,
      "Solaris": 4297,
      "assets": 4298,
      "all_special_ids": 4299,
      "intentional": 4300,
      "running": 4301,
      "sizes": 4302,
      "avoid": 4303,
      "appears": 4304,
      "ref_1": 4305,
      "dimensional": 4306,
      "FAIL": 4307,
      "fields": 4308,
      "succeed": 4309,
      "0x7f4ff4219841": 4310,
      "0x7f4ff40e261c": 4311,
      "destroy": 4312,
      "breaks": 4313,
      "34766": 4314,
      "Len0": 4315,
      "_WARN": 4316,
      "bltinmodule": 4317,
      "bw_no_leak": 4318,
      "publish": 4319,
      "treats": 4320,
      "wcsxfrm": 4321,
      "on_threads_shutdown": 4322,
      "transient": 4323,
      "updates": 4324,
      "ustom_code": 4325,
      "_deadlock": 4326,
      "controlling": 4327,
      "BF16": 4328,
      "CrossEnt": 4329,
      "Downloads": 4330,
      "Flags": 4331,
      "_thread_safety": 4332,
      "pract": 4333,
      "recommended": 4334,
      "mechanism": 4335,
      "world_size": 4336,
      "per_param_flag": 4337,
      "interpolate": 4338,
      "0x7f4ff439032": 4339,
      "ArrowDtype": 4340,
      "arccosh": 4341,
      "23606": 4342,
      "BLAS": 4343,
      "DatetimeIndex": 4344,
      "Huggingface_hub": 4345,
      "Safetensors": 4346,
      "_IncludedRouter": 4347,
      "_impl": 4348,
      "_initialize": 4349,
      "_check_per_param_flag": 4350,
      "bench": 4351,
      "elapsed": 4352,
      "fingerprint": 4353,
      "ndimage": 4354,
      "snippe": 4355,
      "onent_log": 4356,
      "is_custom_code": 4357,
      "stderr": 4358,
      "security": 4359,
      "extensions": 4360,
      "entries": 4361,
      "libstdc": 4362,
      "uring_bw_no_leak": 4363,
      "whitespace": 4364,
      "ca7933e": 4365,
      "__name__": 4366,
      "test_multithreading": 4367,
      "test_eigvalsh_thread_safety": 4368,
      "test_to_r_to_c": 4369,
      "test_saved_tensor_hooks": 4370,
      "daemon_threads_shutdown": 4371,
      "DeepSpeed": 4372,
      "ive_candidates": 4373,
      "run_clm_no_trainer": 4374,
      "application": 4375,
      "ASCII": 4376,
      "irshadcc": 4377,
      "builtin_exec": 4378,
      "_FLOAT": 4379,
      "cross_entropy": 4380,
      "KyutaiSpeechToText": 4381,
      "_extra_enter_during_bw_no_leak": 4382,
      "loops_exponent_log": 4383,
      "CrossEntropyLoss": 4384,
      "test_saved_tensor_hooks_extra_enter_during_bw_no_leak": 4385,
      "\"\"`": 4386,
      "#<": 4387,
      "'`,": 4388,
      "'`.": 4389,
      "(~": 4390,
      "(\"/": 4391,
      "({\"": 4392,
      ")`.": 4393,
      ",),": 4394,
      "-*-": 4395,
      ".:": 4396,
      ".\"`": 4397,
      "/>": 4398,
      "1b": 4399,
      "1_000_000": 4400,
      "200": 4401,
      "225": 4402,
      "240": 4403,
      "2ba": 4404,
      "316": 4405,
      "3161": 4406,
      "3_vl": 4407,
      "54": 4408,
      "5d": 4409,
      "532": 4410,
      "68": 4411,
      "6b": 4412,
      "612": 4413,
      "637": 4414,
      "679": 4415,
      "63f": 4416,
      "71": 4417,
      "7b": 4418,
      "75c": 4419,
      "8ff": 4420,
      "91": 4421,
      "94": 4422,
      "990": 4423,
      "<<": 4424,
      ">)": 4425,
      "AF": 4426,
      "AY": 4427,
      "After": 4428,
      "AINE": 4429,
      "BC": 4430,
      "BI": 4431,
      "BHI": 4432,
      "Black": 4433,
      "CV": 4434,
      "Col": 4435,
      "Com": 4436,
      "Categ": 4437,
      "Clamp": 4438,
      "Check": 4439,
      "CSV": 4440,
      "DR": 4441,
      "Dy": 4442,
      "D_WARN": 4443,
      "EO": 4444,
      "EX": 4445,
      "EINVAL": 4446,
      "Flat": 4447,
      "FOR": 4448,
      "GR": 4449,
      "Grep": 4450,
      "GLM": 4451,
      "GRE": 4452,
      "GRO": 4453,
      "IF": 4454,
      "IO": 4455,
      "Ker": 4456,
      "L1": 4457,
      "L10": 4458,
      "L161": 4459,
      "M4": 4460,
      "MR": 4461,
      "Mac": 4462,
      "Na": 4463,
      "NAL": 4464,
      "N_R": 4465,
      "Nvidia": 4466,
      "One": 4467,
      "Red": 4468,
      "ROC": 4469,
      "S8": 4470,
      "SX": 4471,
      "S_": 4472,
      "Sig": 4473,
      "Sci": 4474,
      "Spect": 4475,
      "Single": 4476,
      "TY": 4477,
      "Tran": 4478,
      "Tool": 4479,
      "Trained": 4480,
      "UL": 4481,
      "Ub": 4482,
      "VL": 4483,
      "VS": 4484,
      "Ver": 4485,
      "X86": 4486,
      "ZFS": 4487,
      "]`,": 4488,
      "]))": 4489,
      "_u": 4490,
      "_val": 4491,
      "_ps": 4492,
      "_id": 4493,
      "_model": 4494,
      "_array": 4495,
      "_thread": 4496,
      "_ll": 4497,
      "_Test": 4498,
      "_header": 4499,
      "_init": 4500,
      "_index_col": 4501,
      "_eval": 4502,
      "_limit": 4503,
      "_invalid": 4504,
      "_implementation": 4505,
      "_integration": 4506,
      "_df1": 4507,
      "_tsc": 4508,
      "_lock": 4509,
      "_helper": 4510,
      "_layers": 4511,
      "_flatten": 4512,
      "_Gener": 4513,
      "_sum": 4514,
      "_complex": 4515,
      "_DISABLED": 4516,
      "_proj": 4517,
      "_amd64": 4518,
      "`~": 4519,
      "`⚠": 4520,
      "`🚫": 4521,
      "`**": 4522,
      "`#<": 4523,
      "aes": 4524,
      "apt": 4525,
      "aper": 4526,
      "aud": 4527,
      "affine": 4528,
      "b0": 4529,
      "bat": 4530,
      "bpo": 4531,
      "cm": 4532,
      "cw": 4533,
      "car": 4534,
      "cation": 4535,
      "cmd": 4536,
      "carri": 4537,
      "candid": 4538,
      "cular": 4539,
      "d2": 4540,
      "d8": 4541,
      "dx": 4542,
      "dst": 4543,
      "done": 4544,
      "d40": 4545,
      "d3a": 4546,
      "e3": 4547,
      "e7": 4548,
      "ee": 4549,
      "ever": 4550,
      "e62": 4551,
      "fy": 4552,
      "gg": 4553,
      "gError": 4554,
      "gated": 4555,
      "gpu": 4556,
      "had": 4557,
      "hwp": 4558,
      "hanced": 4559,
      "ia": 4560,
      "ik": 4561,
      "iOS": 4562,
      "imax": 4563,
      "k_v": 4564,
      "liter": 4565,
      "mre": 4566,
      "mus": 4567,
      "mid": 4568,
      "mately": 4569,
      "nth": 4570,
      "nces": 4571,
      "nni": 4572,
      "navigation": 4573,
      "pto": 4574,
      "pxi": 4575,
      "p_l": 4576,
      "push": 4577,
      "pclm": 4578,
      "qr": 4579,
      "qdq": 4580,
      "r0": 4581,
      "rer": 4582,
      "ril": 4583,
      "sl": 4584,
      "scop": 4585,
      "sleep": 4586,
      "t0": 4587,
      "tw": 4588,
      "tree": 4589,
      "usu": 4590,
      "v3": 4591,
      "vv": 4592,
      "vid": 4593,
      "vLLM": 4594,
      "yet": 4595,
      "zz": 4596,
      "inconsistent": 4597,
      "inductor": 4598,
      "thus": 4599,
      "alone": 4600,
      "attribut": 4601,
      "repo": 4602,
      "revision": 4603,
      "pygra": 4604,
      "aring": 4605,
      "arti": 4606,
      "asured": 4607,
      "lez": 4608,
      "lection": 4609,
      "lections": 4610,
      "levant": 4611,
      "itf": 4612,
      "dele": 4613,
      "demo": 4614,
      "decimal": 4615,
      "determ": 4616,
      "anded": 4617,
      "stic": 4618,
      "stri": 4619,
      "lody": 4620,
      "union_": 4621,
      "unmapped": 4622,
      "ibrs": 4623,
      "sem": 4624,
      "seconds": 4625,
      "copi": 4626,
      "could": 4627,
      "counter": 4628,
      "covers": 4629,
      "extension": 4630,
      "meta": 4631,
      "raw": 4632,
      "mpto": 4633,
      "testSecond": 4634,
      "testSingle": 4635,
      "toge": 4636,
      "toward": 4637,
      "ulthand": 4638,
      "ulqdq": 4639,
      "nothing": 4640,
      "nostic": 4641,
      "peft": 4642,
      "conc": 4643,
      "context": 4644,
      "sugg": 4645,
      "0x1": 4646,
      "0x154": 4647,
      "0xfc": 4648,
      "0x370": 4649,
      "pose": 4650,
      "popc": 4651,
      "poisson": 4652,
      "fork": 4653,
      "moving": 4654,
      "lab": 4655,
      "int8": 4656,
      "scan": 4657,
      "scored": 4658,
      "libg": 4659,
      "usage": 4660,
      "usion_": 4661,
      "vals": 4662,
      "16d": 4663,
      "16da": 4664,
      "height": 4665,
      "heav": 4666,
      "trust": 4667,
      "ff2ba": 4668,
      "shard": 4669,
      "shap": 4670,
      "shmem": 4671,
      "dian": 4672,
      "ation_no_trainer": 4673,
      "faulthand": 4674,
      "absol": 4675,
      "often": 4676,
      "runpy": 4677,
      "runtest_": 4678,
      "run_m": 4679,
      "posal": 4680,
      "probe": 4681,
      "promis": 4682,
      "resent": 4683,
      "resize": 4684,
      "callable": 4685,
      "verify": 4686,
      "646": 4687,
      "cach": 4688,
      "ze_tensor": 4689,
      "__version": 4690,
      "__set": 4691,
      "__dir": 4692,
      "------": 4693,
      "id_": 4694,
      "ider": 4695,
      "clust": 4696,
      "torchrun": 4697,
      "worth": 4698,
      "vial": 4699,
      "not_": 4700,
      "chever": 4701,
      "icgen": 4702,
      "expanded": 4703,
      "fromiter": 4704,
      "fromnumeric": 4705,
      "workaround": 4706,
      "quer": 4707,
      "ques": 4708,
      "quot": 4709,
      "agnostic": 4710,
      "items": 4711,
      "test_open": 4712,
      "test_branch": 4713,
      "test_io": 4714,
      "test_posix_": 4715,
      "mentation": 4716,
      "checkout": 4717,
      "check_b": 4718,
      "105": 4719,
      "1088": 4720,
      "109c": 4721,
      "_Py_C": 4722,
      "150": 4723,
      "151": 4724,
      "printo": 4725,
      "pipe": 4726,
      "numpy_version": 4727,
      "17c": 4728,
      "174d": 4729,
      "etc": 4730,
      "csm": 4731,
      "tam": 4732,
      "tain": 4733,
      "0x74": 4734,
      "daily": 4735,
      "daff2ba": 4736,
      "^^^^^^^^^^^^": 4737,
      "packing": 4738,
      "_mat": 4739,
      "_mbm": 4740,
      "_m3_vl": 4741,
      "instru": 4742,
      "import_or": 4743,
      "shiel": 4744,
      "):**": 4745,
      "amx_": 4746,
      "latin": 4747,
      "357": 4748,
      "1906": 4749,
      "page": 4750,
      "per_de": 4751,
      "permal": 4752,
      "ranks": 4753,
      "ed_training": 4754,
      "inary_symbols": 4755,
      "Relevant": 4756,
      "represent": 4757,
      "()`.": 4758,
      "()`/`": 4759,
      "(\"\\": 4760,
      "ptions": 4761,
      "sets": 4762,
      "set_int": 4763,
      "prints": 4764,
      "gence": 4765,
      "genuine": 4766,
      "cance": 4767,
      "disk": 4768,
      "disable": 4769,
      "distribut": 4770,
      "collections": 4771,
      "izers": 4772,
      "ac174d": 4773,
      "finally": 4774,
      "1d81e": 4775,
      "\"))": 4776,
      "\")`": 4777,
      "bb3e": 4778,
      "recur": 4779,
      "size_h": 4780,
      "ffective_candidates": 4781,
      "_pthread_": 4782,
      "mllama": 4783,
      "30145": 4784,
      "_sw": 4785,
      "_sig": 4786,
      "opened": 4787,
      "openpt": 4788,
      "apic": 4789,
      "diffusion_": 4790,
      "win_amd64": 4791,
      "whichever": 4792,
      "360": 4793,
      "checkpoints": 4794,
      "47122": 4795,
      "47d3a": 4796,
      "37c": 4797,
      "37bb3e": 4798,
      "run_tests": 4799,
      "Calling": 4800,
      "acting": 4801,
      "active": 4802,
      "shifts": 4803,
      "0x7f4ff4387": 4804,
      "serial": 4805,
      "serves": 4806,
      "2831": 4807,
      "_cuts": 4808,
      "appends": 4809,
      "allocator": 4810,
      "46v": 4811,
      "46bdd": 4812,
      "defect": 4813,
      "UT_RDWR": 4814,
      "until": 4815,
      "408": 4816,
      "4096": 4817,
      "ASAN": 4818,
      "ASSU": 4819,
      "0x10035": 4820,
      "0x100248": 4821,
      "0x1027": 4822,
      "0x102480": 4823,
      "0x10282204c": 4824,
      "^^^^^^^^^^^^^^^^^^^": 4825,
      "Links": 4826,
      "LinAl": 4827,
      "_bad": 4828,
      "_EvalCode": 4829,
      "max_": 4830,
      "minimax": 4831,
      "_ni": 4832,
      "_nav": 4833,
      "likely": 4834,
      "logits_sum": 4835,
      "vars": 4836,
      "requires": 4837,
      "MS_": 4838,
      "meson": 4839,
      "passing": 4840,
      "dyna": 4841,
      "ground": 4842,
      "gram": 4843,
      "converge": 4844,
      "1e17": 4845,
      "1ee62": 4846,
      "overall": 4847,
      "arch_": 4848,
      "modal": 4849,
      "adds": 4850,
      "additional": 4851,
      "img": 4852,
      "prefix": 4853,
      "prepar": 4854,
      "RECV": 4855,
      "bc8e": 4856,
      "signo": 4857,
      "mm_t": 4858,
      "num_hidden": 4859,
      "num_attent": 4860,
      "LEAS": 4861,
      "_melody": 4862,
      "antic": 4863,
      "========================": 4864,
      "_to_nd": 4865,
      "difference": 4866,
      "deprec": 4867,
      "dep_q": 4868,
      "vice_eval": 4869,
      "grouping": 4870,
      "d1d37": 4871,
      "misses": 4872,
      "misleading": 4873,
      "0x7f4ff40e1088": 4874,
      "closing": 4875,
      "casting": 4876,
      "multiprocessing": 4877,
      "multimodal": 4878,
      "tried": 4879,
      "trivial": 4880,
      "trunk": 4881,
      "requested": 4882,
      "avx512_": 4883,
      "avx512v": 4884,
      "CLI": 4885,
      "`)**:": 4886,
      "accelerate": 4887,
      "tokenizer": 4888,
      "tokenized": 4889,
      "AutoConfig": 4890,
      "quantize_tensor": 4891,
      "_multi_index": 4892,
      "tz_local": 4893,
      "0x7f4ff43d1d37": 4894,
      "Also": 4895,
      "truncating": 4896,
      "seek_v": 4897,
      "72ac174d": 4898,
      "Max": 4899,
      "b4c": 4900,
      "inspect": 4901,
      "changing": 4902,
      "understand": 4903,
      "hashing": 4904,
      "RuntimeError": 4905,
      "ADDR": 4906,
      "AppImage": 4907,
      "patched": 4908,
      "realistic": 4909,
      "uniques": 4910,
      "_df2": 4911,
      "af0f": 4912,
      "removal": 4913,
      "294": 4914,
      "Arg": 4915,
      "Arch": 4916,
      "Array": 4917,
      "PYTORCH": 4918,
      "_axis": 4919,
      "_affine": 4920,
      "ion_heads": 4921,
      "didn": 4922,
      "references": 4923,
      "MEOUT": 4924,
      "Stepping": 4925,
      "cb37bb3e": 4926,
      "harder": 4927,
      "hardware": 4928,
      "clicking": 4929,
      "feature_extra": 4930,
      "encodings": 4931,
      "WORLD_LOCAL_RANK": 4932,
      "8194": 4933,
      "ClangCL": 4934,
      "ravel_multi_index": 4935,
      "AVX512_S": 4936,
      "developers": 4937,
      "05af0f": 4938,
      "2c2": 4939,
      "_hf_": 4940,
      "offload_": 4941,
      "offloaded": 4942,
      "involved": 4943,
      "gemma3": 4944,
      "0x00000000000000": 4945,
      "namicCache": 4946,
      "flakytest": 4947,
      "factorize_array": 4948,
      "Keep": 4949,
      "Platforms": 4950,
      "PlatformTool": 4951,
      "See": 4952,
      "double_": 4953,
      "computed": 4954,
      "INGS": 4955,
      "ING_DISABLED": 4956,
      "writing": 4957,
      "Implement": 4958,
      "Under": 4959,
      "_FAI": 4960,
      "gs_audio": 4961,
      "summaries": 4962,
      "ThreadSanitizer": 4963,
      "blocked": 4964,
      "0x10247e9": 4965,
      "expected_row_1d": 4966,
      "expected_col_1d": 4967,
      "SHUT_RDWR": 4968,
      "caten": 4969,
      "cat_l": 4970,
      "cur_limit": 4971,
      "e934": 4972,
      "marker": 4973,
      "tsc_": 4974,
      "15419": 4975,
      "compressed": 4976,
      "0x10009e934": 4977,
      "_special_tokens": 4978,
      "Minus1": 4979,
      "_eq": 4980,
      "_effective_candidates": 4981,
      "certain": 4982,
      "grepping": 4983,
      "included": 4984,
      "remaining": 4985,
      "istics": 4986,
      "Buil": 4987,
      "THE": 4988,
      "THINGS": 4989,
      "_asof": 4990,
      "ndmax": 4991,
      "please": 4992,
      "rejects": 4993,
      "debugging": 4994,
      "model_type": 4995,
      "0x000000030": 4996,
      "----------------------------------------------------------------": 4997,
      "inherits": 4998,
      "Obj": 4999,
      "OUTES": 5000,
      "Quest": 5001,
      "glm_o": 5002,
      "glm46v": 5003,
      "hangs": 5004,
      "hanging": 5005,
      "switch": 5006,
      "inference": 5007,
      "meaning": 5008,
      "control": 5009,
      "301642": 5010,
      "modular_": 5011,
      "legacy_": 5012,
      "3b612": 5013,
      "_scaled_gemm": 5014,
      "cqm_mbm": 5015,
      "hung": 5016,
      "hunyuan": 5017,
      "convention": 5018,
      "successes": 5019,
      "InvalidDecimal": 5020,
      "InvalidTime": 5021,
      "________________": 5022,
      "!!!!!!!!": 5023,
      "globals": 5024,
      "Dispatched": 5025,
      "HashTable": 5026,
      "Supp": 5027,
      "Solution": 5028,
      "_qmm_t": 5029,
      "cdp_l": 5030,
      "reviewed": 5031,
      "all_special_tokens": 5032,
      "PyObjectHashTable": 5033,
      "facts": 5034,
      "runners": 5035,
      "sized": 5036,
      "avoids": 5037,
      "Exception": 5038,
      "dimension": 5039,
      "posix_openpt": 5040,
      "MetalConfig": 5041,
      "hidden_size": 5042,
      "_tutorial": 5043,
      "nulls": 5044,
      "sse4": 5045,
      "touches": 5046,
      "touched": 5047,
      "trials": 5048,
      "quick": 5049,
      "assisted": 5050,
      "set_names": 5051,
      "hashtable_class": 5052,
      "interrupted": 5053,
      "applies": 5054,
      "applied": 5055,
      "subclasses": 5056,
      "bmi2": 5057,
      "inherited": 5058,
      "OMPI_COMM_WORLD_LOCAL_RANK": 5059,
      "77532": 5060,
      "IBRS": 5061,
      "OKAY": 5062,
      "higgs_audio": 5063,
      "pinned": 5064,
      "decref": 5065,
      "0x0000790a430": 5066,
      "browser_nav": 5067,
      "duplicated": 5068,
      "3451d81e": 5069,
      ":]).": 5070,
      "Output": 5071,
      "PreTrained": 5072,
      "_is_hf_": 5073,
      "automation": 5074,
      "basename": 5075,
      "growing": 5076,
      "merge_asof": 5077,
      "nvshmem": 5078,
      "ogle": 5079,
      "spaces": 5080,
      "deepseek_v": 5081,
      "000102": 5082,
      "unlimited": 5083,
      "0x837c": 5084,
      "propagation": 5085,
      "distributions": 5086,
      "206cb37bb3e": 5087,
      "47281": 5088,
      "_batch_size": 5089,
      "algorithms": 5090,
      "0x7f4ff40ddbc0": 5091,
      "describes": 5092,
      "save_file": 5093,
      "restored_2d": 5094,
      "_TIMEOUT": 5095,
      "ImportError": 5096,
      "POSIX": 5097,
      "find_allocation_covering": 5098,
      "0x7b4fea697": 5099,
      "~~~~~~~~~~~~~~~^": 5100,
      "\".../": 5101,
      "Cyril": 5102,
      "Eigen": 5103,
      "Occurrences": 5104,
      "Segmentation": 5105,
      "bracket": 5106,
      "evaluates": 5107,
      "frontend": 5108,
      "ufunc_object": 5109,
      "wait": 5110,
      "reliably": 5111,
      "edgetam": 5112,
      "methods": 5113,
      "mamba2": 5114,
      "0x5d1d37": 5115,
      "PyEval_EvalCode": 5116,
      "190360": 5117,
      "Debugging": 5118,
      "refreshed": 5119,
      "0x7f4ff40de1cb": 5120,
      "identifiers": 5121,
      "sheet_name": 5122,
      "Alternative": 5123,
      "0x102628d40": 5124,
      "investig": 5125,
      "0x7f4ff439032e": 5126,
      "snippets": 5127,
      "ca7933e47d3a": 5128,
      "test_to_r_to_c_cpu": 5129,
      "75c1": 5130,
      "AINED_WARN": 5131,
      "BITS": 5132,
      "DynamicCache": 5133,
      "GREEN": 5134,
      "GROUP": 5135,
      "Kernel": 5136,
      "MRI": 5137,
      "NaN": 5138,
      "N_ROUTES": 5139,
      "Signal": 5140,
      "SciPy": 5141,
      "Spectre": 5142,
      "Ubuntu": 5143,
      "X86_V": 5144,
      "_llc": 5145,
      "_TestObj": 5146,
      "_init_weights": 5147,
      "_lock_detect": 5148,
      "_flatten_as": 5149,
      "_Generated": 5150,
      "_complex64": 5151,
      "affine_qmm_t": 5152,
      "cwd": 5153,
      "carry": 5154,
      "carries": 5155,
      "candidate": 5156,
      "mremap": 5157,
      "musicgen": 5158,
      "pclmulqdq": 5159,
      "rerun": 5160,
      "scoped": 5161,
      "twice": 5162,
      "attributes": 5163,
      "pygrappa": 5164,
      "determined": 5165,
      "union_indexes": 5166,
      "copies": 5167,
      "testSecondCmsgTrunc": 5168,
      "testSingleCmsgTrunc": 5169,
      "together": 5170,
      "peft_integration": 5171,
      "popcnt": 5172,
      "16da15": 5173,
      "faulthandler": 5174,
      "absolute": 5175,
      "__version__": 5176,
      "__dir__": 5177,
      "cluster": 5178,
      "test_branch_cuts": 5179,
      "check_binary_symbols": 5180,
      "109c3b612": 5181,
      "printoptions": 5182,
      "instructions": 5183,
      "import_or_config": 5184,
      "shield": 5185,
      "per_device_eval": 5186,
      "set_int_max_str_digits": 5187,
      "distributed_training": 5188,
      "size_hint": 5189,
      "diffusion_gemma": 5190,
      "46bdd05af0f": 5191,
      "ASSUME": 5192,
      "0x102480b4c": 5193,
      "LinAlgError": 5194,
      "minimax_m3_vl": 5195,
      "dynamo": 5196,
      "1ee62bc8e": 5197,
      "RECV_TIMEOUT": 5198,
      "num_hidden_layers": 5199,
      "num_attention_heads": 5200,
      "_to_ndarray": 5201,
      "tz_localize": 5202,
      "offload_folder": 5203,
      "PlatformToolset": 5204,
      "0x10247e938": 5205,
      "glm_ocr": 5206,
      "hunyuan_vl": 5207,
      "hashtable_class_helper": 5208,
      "higgs_audio_v2": 5209,
      "3451d81e72ac174d": 5210,
      "PreTrainedModel": 5211,
      "_is_hf_initialized": 5212,
      "deepseek_v32": 5213,
      "ca7933e47d3a3451d81e72ac174d": 5214,
      "AINED_WARNING_DISABLED": 5215,
      "musicgen_melody": 5216,
      "test_branch_cuts_complex64": 5217,
      "109c3b612206cb37bb3e": 5218,
      "per_device_eval_batch_size": 5219,
      "46bdd05af0f1ee62bc8e": 5220,
      "46bdd05af0f1ee62bc8e109c3b612206cb37bb3e": 5221,
      "\"-": 5222,
      "\"})": 5223,
      "'-": 5224,
      "(**": 5225,
      "))`": 5226,
      "*/*": 5227,
      ".\"": 5228,
      ".{": 5229,
      "0b": 5230,
      "032": 5231,
      "0408": 5232,
      "110": 5233,
      "119": 5234,
      "201": 5235,
      "2Int": 5236,
      "342": 5237,
      "330": 5238,
      "348": 5239,
      "4Z": 5240,
      "4f": 5241,
      "4th": 5242,
      "419": 5243,
      "4000": 5244,
      "448": 5245,
      "445": 5246,
      "5B": 5247,
      "515": 5248,
      "519": 5249,
      "55c": 5250,
      "600": 5251,
      "6__": 5252,
      "6f4": 5253,
      "676": 5254,
      "759": 5255,
      "8bc": 5256,
      "897": 5257,
      "9d": 5258,
      "910": 5259,
      "945": 5260,
      "9116": 5261,
      ":.": 5262,
      ":`": 5263,
      ">=": 5264,
      "Ac": 5265,
      "Are": 5266,
      "Act": 5267,
      "Async": 5268,
      "Bits": 5269,
      "Ch": 5270,
      "Cr": 5271,
      "CMD": 5272,
      "Casting": 5273,
      "Changing": 5274,
      "Dsa": 5275,
      "Dri": 5276,
      "ED": 5277,
      "EI": 5278,
      "Eng": 5279,
      "Ebb": 5280,
      "EPN": 5281,
      "Fil": 5282,
      "Full": 5283,
      "Feb": 5284,
      "Frames": 5285,
      "GE": 5286,
      "GP": 5287,
      "Gen": 5288,
      "Glm": 5289,
      "Hi": 5290,
      "Hard": 5291,
      "HREAD": 5292,
      "IAL": 5293,
      "ICL": 5294,
      "JS": 5295,
      "L2": 5296,
      "L3": 5297,
      "LY": 5298,
      "Le": 5299,
      "L37": 5300,
      "L25": 5301,
      "LAP": 5302,
      "L21": 5303,
      "L66": 5304,
      "Length": 5305,
      "M1": 5306,
      "MM": 5307,
      "Mon": 5308,
      "Mis": 5309,
      "M64": 5310,
      "Marc": 5311,
      "NG": 5312,
      "NOC": 5313,
      "Nightly": 5314,
      "NPY": 5315,
      "N_T": 5316,
      "OL": 5317,
      "PD": 5318,
      "Pull": 5319,
      "PACK": 5320,
      "RA": 5321,
      "RUN": 5322,
      "S1": 5323,
      "Sun": 5324,
      "Sil": 5325,
      "SSI": 5326,
      "Speci": 5327,
      "Sour": 5328,
      "T4": 5329,
      "TTY": 5330,
      "USE": 5331,
      "VE": 5332,
      "Vi": 5333,
      "Var": 5334,
      "WEI": 5335,
      "XNN": 5336,
      "[...,": 5337,
      "]:": 5338,
      "]],": 5339,
      "_K": 5340,
      "_en": 5341,
      "_it": 5342,
      "_mo": 5343,
      "_pr": 5344,
      "_env": 5345,
      "_set": 5346,
      "_if": 5347,
      "_PR": 5348,
      "_load": 5349,
      "_loss": 5350,
      "_function": 5351,
      "_umath": 5352,
      "_parse": 5353,
      "_sub": 5354,
      "_internal": 5355,
      "_columns": 5356,
      "_warnings": 5357,
      "_gemma": 5358,
      "_utils": 5359,
      "_Un": 5360,
      "_dim": 5361,
      "_compile": 5362,
      "_flags": 5363,
      "_fact": 5364,
      "_init__": 5365,
      "_remote": 5366,
      "_f2cmap": 5367,
      "_sample": 5368,
      "_parameters": 5369,
      "_wrap": 5370,
      "_stderr": 5371,
      "_extensions": 5372,
      "_ADDR": 5373,
      "`@": 5374,
      "`%.": 5375,
      "a9": 5376,
      "ake": 5377,
      "aarch": 5378,
      "actions": 5379,
      "auth": 5380,
      "bd": 5381,
      "bad": 5382,
      "bus": 5383,
      "bfloat": 5384,
      "b48": 5385,
      "b22": 5386,
      "bash": 5387,
      "cent": 5388,
      "card": 5389,
      "don": 5390,
      "ded": 5391,
      "dca": 5392,
      "d20": 5393,
      "dIndex": 5394,
      "dash": 5395,
      "d3c": 5396,
      "dBytes": 5397,
      "dantic": 5398,
      "ear": 5399,
      "ele": 5400,
      "ecc": 5401,
      "eous": 5402,
      "e_d": 5403,
      "e60": 5404,
      "eDsa": 5405,
      "f8": 5406,
      "far": 5407,
      "fit": 5408,
      "fits": 5409,
      "fusing": 5410,
      "fdb": 5411,
      "frames": 5412,
      "fallocate": 5413,
      "fdb4": 5414,
      "ga": 5415,
      "gc": 5416,
      "gi": 5417,
      "ged": 5418,
      "grows": 5419,
      "gdb": 5420,
      "giv": 5421,
      "h2": 5422,
      "hu": 5423,
      "hint": 5424,
      "ich": 5425,
      "ko": 5426,
      "kin": 5427,
      "kling": 5428,
      "lb": 5429,
      "lan": 5430,
      "llo": 5431,
      "light": 5432,
      "length": 5433,
      "lscalapack": 5434,
      "lvv": 5435,
      "mk": 5436,
      "mul": 5437,
      "mtr": 5438,
      "mist": 5439,
      "mass": 5440,
      "milar": 5441,
      "npro": 5442,
      "nWEI": 5443,
      "od": 5444,
      "occ": 5445,
      "oformat": 5446,
      "pg": 5447,
      "pab": 5448,
      "pid": 5449,
      "pref": 5450,
      "rb": 5451,
      "rate": 5452,
      "ric": 5453,
      "rfc": 5454,
      "sd": 5455,
      "sib": 5456,
      "sing_": 5457,
      "sends": 5458,
      "sites": 5459,
      "t__": 5460,
      "tal_": 5461,
      "tual": 5462,
      "uc": 5463,
      "ump": 5464,
      "uation": 5465,
      "uid": 5466,
      "v2": 5467,
      "ven": 5468,
      "war": 5469,
      "xnu": 5470,
      "xdist": 5471,
      "xel_": 5472,
      "yon": 5473,
      "yes": 5474,
      "|--------": 5475,
      "}.": 5476,
      "}:": 5477,
      "}`": 5478,
      "ination": 5479,
      "inner": 5480,
      "thresh": 5481,
      "think": 5482,
      "erc": 5483,
      "erarch": 5484,
      "erSignal": 5485,
      "orm": 5486,
      "orest": 5487,
      "ess": 5488,
      "essent": 5489,
      "almost": 5490,
      "attributed": 5491,
      "attribution": 5492,
      "ren": 5493,
      "rece": 5494,
      "redu": 5495,
      "recor": 5496,
      "reci": 5497,
      "reconc": 5498,
      "ense": 5499,
      "is_": 5500,
      "isn": 5501,
      "isoformat": 5502,
      "issing_": 5503,
      "ed14": 5504,
      "ed18": 5505,
      "theti": 5506,
      "ark": 5507,
      "arbit": 5508,
      "ital": 5509,
      "ited": 5510,
      "itory": 5511,
      "ities": 5512,
      "itven": 5513,
      "deps": 5514,
      "chun": 5515,
      "child": 5516,
      "utes": 5517,
      "ctl": 5518,
      "cts": 5519,
      "roadmap": 5520,
      "rollo": 5521,
      "stores": 5522,
      "lost": 5523,
      "lopt": 5524,
      "006": 5525,
      "union": 5526,
      "unexpected": 5527,
      "uncond": 5528,
      "unknown": 5529,
      "untouched": 5530,
      "ests": 5531,
      "ibility": 5532,
      "####": 5533,
      "selection": 5534,
      "coder": 5535,
      "exerc": 5536,
      "memp": 5537,
      "racy": 5538,
      "aditven": 5539,
      "fire": 5540,
      "enter": 5541,
      "ullable": 5542,
      "cefully": 5543,
      "maps": 5544,
      "pea": 5545,
      "pection": 5546,
      "pepin": 5547,
      "concurrent": 5548,
      "content": 5549,
      "contin": 5550,
      "contribution": 5551,
      "confli": 5552,
      "confusing": 5553,
      "0x0": 5554,
      "0x17": 5555,
      "0x45": 5556,
      "0xSer": 5557,
      "0x38": 5558,
      "0x9c": 5559,
      "0x120": 5560,
      "0x118": 5561,
      "0xd4": 5562,
      "0xb8": 5563,
      "0x419": 5564,
      "move": 5565,
      "Py_": 5566,
      "Pydantic": 5567,
      "intp": 5568,
      "int_max_str_digits": 5569,
      "scall": 5570,
      "scores": 5571,
      "behave": 5572,
      "behavi": 5573,
      "become": 5574,
      "valent": 5575,
      "167": 5576,
      "1600": 5577,
      "trig": 5578,
      "trip": 5579,
      "tid": 5580,
      "ties": 5581,
      "times": 5582,
      "linker": 5583,
      "lying": 5584,
      "doing": 5585,
      "()`,": 5586,
      "()[\"": 5587,
      "shor": 5588,
      "diver": 5589,
      "diagnostic": 5590,
      "facing": 5591,
      "ab46": 5592,
      "....": 5593,
      "positional": 5594,
      "prob": 5595,
      "proto": 5596,
      "proposed": 5597,
      "provide": 5598,
      "propose": 5599,
      "resol": 5600,
      "resour": 5601,
      "123": 5602,
      "callers": 5603,
      "**.": 5604,
      "bud": 5605,
      "out_dtype": 5606,
      "out_ptr": 5607,
      "pty_": 5608,
      "64bit": 5609,
      "caused": 5610,
      "causing": 5611,
      "saves": 5612,
      "__get": 5613,
      "__clang": 5614,
      "__post": 5615,
      "__format": 5616,
      "___pthread_": 5617,
      "area": 5618,
      "clar": 5619,
      "typ": 5620,
      "notes": 5621,
      "Init": 5622,
      "Inkling": 5623,
      "line_": 5624,
      "export": 5625,
      "worker": 5626,
      "query": 5627,
      "locations": 5628,
      "again": 5629,
      "put_al": 5630,
      "test_compil": 5631,
      "test_socket": 5632,
      "test_flush": 5633,
      "test_daemon_threads_shutdown": 5634,
      "test_runners": 5635,
      "test_memp": 5636,
      "140": 5637,
      "143": 5638,
      "neither": 5639,
      "nearly": 5640,
      "olding": 5641,
      "corru": 5642,
      "check_m": 5643,
      "10sig": 5644,
      "_Py_": 5645,
      "_PyRun": 5646,
      "_Py_D": 5647,
      "15t": 5648,
      "1537": 5649,
      "158c": 5650,
      "hoist": 5651,
      "hoot": 5652,
      "hosts": 5653,
      "comes": 5654,
      "combin": 5655,
      "pie": 5656,
      "pixel_": 5657,
      "parsing": 5658,
      "parses": 5659,
      "numpy_n": 5660,
      "compare": 5661,
      "139": 5662,
      "kept": 5663,
      "rete": 5664,
      "178": 5665,
      "1764": 5666,
      "0x7c": 5667,
      "day": 5668,
      "assigned": 5669,
      "20260408": 5670,
      ").**": 5671,
      "ubles": 5672,
      "building": 5673,
      "buildarea": 5674,
      "_malloc": 5675,
      "_missing_": 5676,
      "f40d": 5677,
      "six": 5678,
      "similar": 5679,
      "shim": 5680,
      "UserSignal": 5681,
      "latent": 5682,
      "3587": 5683,
      "strxfrm": 5684,
      "strides": 5685,
      "191": 5686,
      "perman": 5687,
      "ed_config": 5688,
      "ed_autograd": 5689,
      "ed_acquire": 5690,
      "lip": 5691,
      "lier": 5692,
      "sympto": 5693,
      "syscall": 5694,
      "answer": 5695,
      "argtypes": 5696,
      "return_tensors": 5697,
      "MoeDsa": 5698,
      "Repro": 5699,
      "bypass": 5700,
      "uplic": 5701,
      "repla": 5702,
      "match_re": 5703,
      "match_ref": 5704,
      "unders": 5705,
      "backed": 5706,
      "tramp": 5707,
      "tracking": 5708,
      "trailing": 5709,
      "geneous": 5710,
      "8896": 5711,
      "cant": 5712,
      "threadid": 5713,
      "32ec": 5714,
      "produce": 5715,
      "few": 5716,
      "feab46": 5717,
      "account": 5718,
      "accu": 5719,
      "according": 5720,
      "ximately": 5721,
      "pathway": 5722,
      "generates": 5723,
      "_work_to_": 5724,
      "recurrent": 5725,
      "load_mask": 5726,
      "mlp": 5727,
      "label": 5728,
      "ignores": 5729,
      "exceed": 5730,
      "exceeds": 5731,
      "bugs": 5732,
      "_scop": 5733,
      "_sheet": 5734,
      "openpty": 5735,
      "apps": 5736,
      "refcount": 5737,
      "reflect": 5738,
      "box": 5739,
      "board": 5740,
      "boom": 5741,
      "body": 5742,
      "intermediate": 5743,
      "intersection": 5744,
      "head_dim": 5745,
      "Conta": 5746,
      "0x0000000102": 5747,
      "184": 5748,
      "dev20260408": 5749,
      "losses": 5750,
      "266": 5751,
      "2602": 5752,
      "261d": 5753,
      "ressions": 5754,
      "'))": 5755,
      "473": 5756,
      "float8": 5757,
      "float64": 5758,
      "register": 5759,
      "regressions": 5760,
      "run_compile": 5761,
      "run_threaded": 5762,
      "run_fim": 5763,
      "CallUserSignal": 5764,
      "lerEPN": 5765,
      "([[-": 5766,
      "0x7f4ff438ff": 5767,
      "0x7f4ff43d20": 5768,
      "series": 5769,
      "285": 5770,
      "df7": 5771,
      "filed": 5772,
      "alloc_it": 5773,
      "4633": 5774,
      "_SH": 5775,
      "_ST": 5776,
      "flak": 5777,
      "randn": 5778,
      "ud800": 5779,
      "sysdeps": 5780,
      "Reproduced": 5781,
      "11Thread": 5782,
      "al_assignment": 5783,
      "40Z": 5784,
      "ASymmetricMemory": 5785,
      "0x1000a0": 5786,
      "0x10017c": 5787,
      "0x10255c": 5788,
      "^^^^^^^^^^^^^^^^^^^^^^^^^^^^^^^^^^^^^^^^": 5789,
      "lm_no_trainer": 5790,
      "_RE": 5791,
      "Proposal": 5792,
      "newly": 5793,
      "minim": 5794,
      "anything": 5795,
      "suppressed": 5796,
      "MoshiModel": 5797,
      "MoshiConfig": 5798,
      "MoshiProcessor": 5799,
      "MoshiPreTrainedModel": 5800,
      "_non": 5801,
      "_norm": 5802,
      "273": 5803,
      "274": 5804,
      "87e": 5805,
      "MSG": 5806,
      "bind": 5807,
      "TypeCPU": 5808,
      "gracefully": 5809,
      "OCK": 5810,
      "overr": 5811,
      "overhead": 5812,
      "overwritten": 5813,
      "rule": 5814,
      "WindowsExtension": 5815,
      "additionally": 5816,
      "predi": 5817,
      "forever": 5818,
      "RELEAS": 5819,
      "date32": 5820,
      "ool_tensor": 5821,
      "no_grad": 5822,
      "from_tuples": 5823,
      "from_fields": 5824,
      "last_": 5825,
      "counts": 5826,
      "documents": 5827,
      "975B": 5828,
      "nonzero": 5829,
      "_decoder": 5830,
      "looking": 5831,
      "compiles": 5832,
      "ourselves": 5833,
      "gate_up": 5834,
      "reproduces": 5835,
      "reproducer": 5836,
      "modeling_layoutlm": 5837,
      "modeling_pp_doclayout_v2": 5838,
      "modeling_layoutlmv2": 5839,
      "modeling_layoutlmv3": 5840,
      "modeling_lilt": 5841,
      "assertion": 5842,
      "get_int_max_str_digits": 5843,
      "f2py_f2cmap": 5844,
      "Count": 5845,
      "What": 5846,
      "While": 5847,
      "parsetools": 5848,
      "0x7f4ff40e12": 5849,
      "0x7f4ff40e2309": 5850,
      "0x7f4ff40e2b": 5851,
      "556f4": 5852,
      "WORD": 5853,
      "casts": 5854,
      "git202607": 5855,
      "tripped": 5856,
      "directories": 5857,
      "requested_config": 5858,
      "avx512_get_": 5859,
      "CUDASymmetricMemory": 5860,
      "EncodeError": 5861,
      "specify": 5862,
      "ong_axis": 5863,
      "execute": 5864,
      "followed": 5865,
      "4d4": 5866,
      "4d6": 5867,
      "66d2": 5868,
      "66357": 5869,
      "AutoTo": 5870,
      "iodIndex": 5871,
      "particular": 5872,
      "whether": 5873,
      "expects": 5874,
      "submit": 5875,
      "ewm": 5876,
      "whereas": 5877,
      "sampl": 5878,
      "sampler": 5879,
      "0x00007b4": 5880,
      "separator": 5881,
      "buffered": 5882,
      "logsal": 5883,
      "DataFrames": 5884,
      "Multiple": 5885,
      "OpenBLAS": 5886,
      "inspection": 5887,
      "standalone": 5888,
      "AVX2": 5889,
      "0605": 5890,
      "ADLY": 5891,
      "tinglvv": 5892,
      "condition": 5893,
      "equals": 5894,
      "_dtypes": 5895,
      "baseline": 5896,
      "cache_implementation": 5897,
      "A3B": 5898,
      "_api": 5899,
      "goes": 5900,
      "going": 5901,
      "good": 5902,
      "ordering": 5903,
      "AndBytes": 5904,
      "Roadmap": 5905,
      "_version__": 5906,
      "matters": 5907,
      "matlab": 5908,
      "matric": 5909,
      "y_process_group": 5910,
      "y_check_m": 5911,
      "zeros": 5912,
      "extraction": 5913,
      "SIGNAL": 5914,
      "0x10262c2": 5915,
      ")]',": 5916,
      "eb30": 5917,
      "fp32": 5918,
      "obing": 5919,
      "observed": 5920,
      "observ": 5921,
      "things": 5922,
      "consider": 5923,
      "languageCode": 5924,
      "language_model": 5925,
      "STREA": 5926,
      "visible": 5927,
      "invpcid": 5928,
      "legal_assignment": 5929,
      "toolchain": 5930,
      "0x00000000000075c1": 5931,
      "Message": 5932,
      "Several": 5933,
      "flu": 5934,
      "mismatches": 5935,
      "troubles": 5936,
      "async": 5937,
      "detects": 5938,
      "detected": 5939,
      "detection": 5940,
      "bounding": 5941,
      "B300": 5942,
      "CurrentProcess": 5943,
      "faster": 5944,
      "completes": 5945,
      "recvmsg": 5946,
      "0x10247fdb4": 5947,
      "0x10247ed18": 5948,
      "0x10247eb30": 5949,
      "accepted": 5950,
      "expected_row_2d": 5951,
      "expected_col_2d": 5952,
      "698": 5953,
      "ARM64": 5954,
      "MISSI": 5955,
      "ffixTests": 5956,
      "session": 5957,
      "formatted": 5958,
      "INTER": 5959,
      "0x10009eb2c": 5960,
      "0x10009fdb": 5961,
      "0x10009ed14": 5962,
      "guarded": 5963,
      "skip_if": 5964,
      "Compil": 5965,
      "CHAINED_WARNING_DISABLED": 5966,
      "ENH": 5967,
      "_run_module": 5968,
      "destination": 5969,
      "tsanL21": 5970,
      "includes": 5971,
      "remains": 5972,
      "ProcessHandle": 5973,
      "4bit_modules": 5974,
      "consistently": 5975,
      "PNOT": 5976,
      "Some": 5977,
      "ndarray": 5978,
      "tiny": 5979,
      "metal": 5980,
      "posix": 5981,
      "146145": 5982,
      "model_id": 5983,
      "collective": 5984,
      "0x0000000302": 5985,
      "KeyError": 5986,
      "9ef40d": 5987,
      "HandlerEPN": 5988,
      "TRIAL": 5989,
      "WithName": 5990,
      "clamp_": 5991,
      "clamped": 5992,
      "glm_mo": 5993,
      "kenizer": 5994,
      "infra": 5995,
      "rounding": 5996,
      "sequence": 5997,
      "capital": 5998,
      "keeping": 5999,
      "8894": 6000,
      "504B": 6001,
      "================================================================": 6002,
      "0x10261ee60": 6003,
      "interpreted": 6004,
      "UnicodeEncodeError": 6005,
      "3bf": 6006,
      "DEL": 6007,
      "DEADLY": 6008,
      "GetCurrentProcess": 6009,
      "GetProcessHandle": 6010,
      "Original": 6011,
      "SUPP": 6012,
      "linear4bit_modules": 6013,
      "test_encode_": 6014,
      "layer_norm": 6015,
      "find_if": 6016,
      "status_code": 6017,
      "timestamps": 6018,
      "completely": 6019,
      "maintainer": 6020,
      "maintainers": 6021,
      "comparisons": 6022,
      "31965": 6023,
      "GIL": 6024,
      "Hashing": 6025,
      "LURE": 6026,
      "SuffixTests": 6027,
      "_Z10sig": 6028,
      "ivate": 6029,
      "ificant": 6030,
      "significant": 6031,
      "0x2e2309": 6032,
      "0x2e261d": 6033,
      "PyObject_Vectorcall": 6034,
      "0x7b4feab46": 6035,
      "simd_log": 6036,
      "simd_extensions": 6037,
      "configuration_": 6038,
      "Excel": 6039,
      "ref_2": 6040,
      "handleriPN11__sanitizer23__sanitizer_siginfo_padEPv": 6041,
      "partial_load_mask": 6042,
      "bbbbbbbbbb": 6043,
      "bbbbbbbbbbbbbbbbbb": 6044,
      "aaaaaaaaaa": 6045,
      "aaaaaaaaaaaaaaaaaa": 6046,
      "reasons": 6047,
      "MetalLinear": 6048,
      "sniffs": 6049,
      "8c0": 6050,
      "E_ARM64": 6051,
      "Generation": 6052,
      "MODEL": 6053,
      "Measured": 6054,
      "O_NOC": 6055,
      "PeriodIndex": 6056,
      "slower": 6057,
      "defined": 6058,
      "definition": 6059,
      "field": 6060,
      "succeeds": 6061,
      "promptly": 6062,
      "complexity": 6063,
      "assistance": 6064,
      "0x7f4ff4219842": 6065,
      "Register": 6066,
      "approach": 6067,
      "approximately": 6068,
      "0x7f4ff43a3": 6069,
      "0x7f4ff43ae": 6070,
      "46739": 6071,
      "0x7f4ff40e261d": 6072,
      "destroy_process_group": 6073,
      "2f032": 6074,
      "Doc": 6075,
      "FSDP2": 6076,
      "IBPB": 6077,
      "IDLE": 6078,
      "L600": 6079,
      "create": 6080,
      "high": 6081,
      "simple": 6082,
      "simply": 6083,
      "uineIntel": 6084,
      "stays": 6085,
      "testCmsgTruncLen0": 6086,
      "heckSlot": 6087,
      "corrupted": 6088,
      "0x7f4ff3a45": 6089,
      "dddddddd": 6090,
      "predicts": 6091,
      "segfaults": 6092,
      "preserving": 6093,
      "cleanly": 6094,
      "Workaround": 6095,
      "0x103405274": 6096,
      "0x1034054d4": 6097,
      "FP16": 6098,
      "_PORT": 6099,
      "_PLAT": 6100,
      "gil_scop": 6101,
      "gatherWork": 6102,
      "larger": 6103,
      "largest": 6104,
      "leaves": 6105,
      "uname_result": 6106,
      "heuristic": 6107,
      "heuristics": 6108,
      "sanitization": 6109,
      "AVX512_ICL": 6110,
      "vision_config": 6111,
      "vision_encoder": 6112,
      "_ZN11__sanitizer": 6113,
      "_ZN6__": 6114,
      "MASTER_ADDR": 6115,
      "MASTER_PORT": 6116,
      "TestAutogradDevice": 6117,
      "AllgatherWork": 6118,
      "CDLL": 6119,
      "MergeError": 6120,
      "ZipInfo": 6121,
      "_getframe": 6122,
      "_unique_hash": 6123,
      "catch_warnings": 6124,
      "freq": 6125,
      "futures": 6126,
      "half": 6127,
      "iority": 6128,
      "pkg": 6129,
      "plexity": 6130,
      "zipfile": 6131,
      "|---|---|---|": 6132,
      "reachable": 6133,
      "reconstruction": 6134,
      "ibpb": 6135,
      "seems": 6136,
      "noticed": 6137,
      "0x1963f": 6138,
      "lapack_work_to_": 6139,
      "libsystem_platform": 6140,
      "__GI___pthread_": 6141,
      "use_errno": 6142,
      "0x7f4ff455158c": 6143,
      "replacement": 6144,
      "lowering": 6145,
      "tracked": 6146,
      "translation": 6147,
      "generic_": 6148,
      "0x7f4ff43aa842": 6149,
      "Loaded": 6150,
      "factorize_from_iterable": 6151,
      "eigenvalue": 6152,
      "cp316t": 6153,
      "StateEbb": 6154,
      "sequentially": 6155,
      "FlagsWithName": 6156,
      "practical": 6157,
      "_initialize_missing_": 6158,
      "benchmark": 6159,
      "KyutaiSpeechToTextProcessor": 6160,
      "EOPNOT": 6161,
      "FORM": 6162,
      "OneDri": 6163,
      "S_11Thread": 6164,
      "Verified": 6165,
      "auditing": 6166,
      "usually": 6167,
      "strict": 6168,
      "0x1cc": 6169,
      "heavy_check_m": 6170,
      "shapes": 6171,
      "run_mlm_no_trainer": 6172,
      "cached": 6173,
      "not_found": 6174,
      "quoted": 6175,
      "_Py_CheckSlot": 6176,
      "recursion": 6177,
      "_sigtramp": 6178,
      "0x100248d3c": 6179,
      "preparation": 6180,
      "============================": 6181,
      "deprecated": 6182,
      "feature_extractor": 6183,
      "AVX512_SPR": 6184,
      "double_shifted": 6185,
      "0x0000000303bf": 6186,
      "----------------------------------------------------------------------": 6187,
      "Questions": 6188,
      "meaningful": 6189,
      "nvshmem_malloc": 6190,
      "0x7b4fea697125": 6191,
      "Eigenvalues": 6192,
      "_flatten_as_ptr": 6193,
      "carrying": 6194,
      "910B": 6195,
      "Actual": 6196,
      "AsyncAllgatherWork": 6197,
      "BitsAndBytes": 6198,
      "Crash": 6199,
      "English": 6200,
      "GenuineIntel": 6201,
      "GlmMoeDsa": 6202,
      "HREADS": 6203,
      "JSON": 6204,
      "LAPACK": 6205,
      "N_THREADS": 6206,
      "SunMarc": 6207,
      "Source": 6208,
      "XNNPACK": 6209,
      "_umath_linalg": 6210,
      "_parse_sheet": 6211,
      "_factory": 6212,
      "_stderr_deadlock": 6213,
      "aarch64": 6214,
      "elem": 6215,
      "e_dsa": 6216,
      "kind": 6217,
      "mistake": 6218,
      "massive": 6219,
      "nWEIdia": 6220,
      "occur": 6221,
      "pablogsal": 6222,
      "sibling": 6223,
      "umpStack": 6224,
      "erarchy": 6225,
      "orestats": 6226,
      "arbitrary": 6227,
      "chunk": 6228,
      "aditvenk": 6229,
      "0x170": 6230,
      "0xSero": 6231,
      "0xb8cc": 6232,
      "0x419842": 6233,
      "behaviour": 6234,
      "resources": 6235,
      "out_ptr0": 6236,
      "__getitem__": 6237,
      "__clang_version__": 6238,
      "__post_init__": 6239,
      "__format__": 6240,
      "put_along_axis": 6241,
      "test_compiled_autograd": 6242,
      "test_flush_parameters": 6243,
      "test_daemon_threads_shutdown_stderr_deadlock": 6244,
      "test_mempool_tensor": 6245,
      "corruption": 6246,
      "_PyRun_S": 6247,
      "_Py_DumpStack": 6248,
      "hooting": 6249,
      "pixel_values": 6250,
      "numpy_nullable": 6251,
      "35875": 6252,
      "match_ref2": 6253,
      "match_ref1": 6254,
      "accuracy": 6255,
      "recurrent_gemma": 6256,
      "run_fim_no_trainer": 6257,
      "CallUserSignalHandlerEPN": 6258,
      "0x7f4ff43d20a8": 6259,
      "46338": 6260,
      "0x1000a0b48": 6261,
      "0x10017c8bc": 6262,
      "0x10255c8c0": 6263,
      "minimum": 6264,
      "WindowsExtensionSuffixTests": 6265,
      "RELEASE_ARM64": 6266,
      "gate_up_proj": 6267,
      "556f42": 6268,
      "avx512_get_partial_load_mask": 6269,
      "AutoTokenizer": 6270,
      "06053": 6271,
      "matrices": 6272,
      "0x10262c290": 6273,
      "STREAMS": 6274,
      "troubleshooting": 6275,
      "MISSING": 6276,
      "0x10009fdb0": 6277,
      "tsanL21CallUserSignalHandlerEPN": 6278,
      "9ef40d32ec": 6279,
      "TRIALS": 6280,
      "glm_moe_dsa": 6281,
      "DEADLYSIGNAL": 6282,
      "GetProcessHandleCount": 6283,
      "_Z10sighandleriPN11__sanitizer23__sanitizer_siginfo_padEPv": 6284,
      "simd_log_FLOAT": 6285,
      "O_NOCTTY": 6286,
      "2f032556f42": 6287,
      "_PLATFORM": 6288,
      "gil_scoped_acquire": 6289,
      "vision_encoder_decoder": 6290,
      "_ZN6__tsanL21CallUserSignalHandlerEPN": 6291,
      "TestAutogradDeviceTypeCPU": 6292,
      "0x1963f1764": 6293,
      "lapack_work_to_int": 6294,
      "StateEbbiPN11__sanitizer23__sanitizer_siginfo_padEPv": 6295,
      "_initialize_missing_keys": 6296,
      "EOPNOTSUPP": 6297,
      "OneDrive": 6298,
      "S_11ThreadStateEbbiPN11__sanitizer23__sanitizer_siginfo_padEPv": 6299,
      "heavy_check_mark": 6300,
      "_Py_CheckSlotResult": 6301,
      "BitsAndBytesConfig": 6302,
      "test_compiled_autograd_id": 6303,
      "test_mempool_tensor_factory": 6304,
      "RELEASE_ARM64_T": 6305,
      "avx512_get_partial_load_mask_ps": 6306,
      "_ZN6__tsanL21CallUserSignalHandlerEPNS_11ThreadStateEbbiPN11__sanitizer23__sanitizer_siginfo_padEPv": 6307,
      "\"\"": 6308,
      "\"(": 6309,
      "\"*": 6310,
      "\"{": 6311,
      "\"}": 6312,
      "\"\":": 6313,
      "%|": 6314,
      "'(": 6315,
      "'>": 6316,
      "').": 6317,
      "(%.": 6318,
      ")\"": 6319,
      ")^": 6320,
      ")),": 6321,
      ")],": 6322,
      ")\")": 6323,
      "*(": 6324,
      ",-": 6325,
      "-%": 6326,
      ".`": 6327,
      ".).": 6328,
      "/)": 6329,
      "/).": 6330,
      "0c": 6331,
      "0ab": 6332,
      "0bc": 6333,
      "1f": 6334,
      "1g": 6335,
      "1s": 6336,
      "186": 6337,
      "1ms": 6338,
      "216": 6339,
      "2ve": 6340,
      "20000": 6341,
      "2100": 6342,
      "220": 6343,
      "286": 6344,
      "2000": 6345,
      "246": 6346,
      "297": 6347,
      "2_000_000": 6348,
      "2apic": 6349,
      "3j": 6350,
      "3x": 6351,
      "3ff": 6352,
      "315": 6353,
      "332": 6354,
      "386": 6355,
      "390": 6356,
      "3a0": 6357,
      "4m": 6358,
      "420": 6359,
      "411": 6360,
      "41e": 6361,
      "5b": 6362,
      "5f": 6363,
      "501": 6364,
      "590": 6365,
      "548": 6366,
      "580": 6367,
      "545": 6368,
      "6B": 6369,
      "6c": 6370,
      "6d": 6371,
      "6000": 6372,
      "611": 6373,
      "622": 6374,
      "699": 6375,
      "657": 6376,
      "62c": 6377,
      "61c": 6378,
      "6144": 6379,
      "70": 6380,
      "7e": 6381,
      "747": 6382,
      "787": 6383,
      "7bc": 6384,
      "756": 6385,
      "706": 6386,
      "778": 6387,
      "8f": 6388,
      "801": 6389,
      "850": 6390,
      "821": 6391,
      "858": 6392,
      "93": 6393,
      "9Z": 6394,
      "9_": 6395,
      "936": 6396,
      "9aa": 6397,
      "9000": 6398,
      ":=": 6399,
      "<=": 6400,
      "<?": 6401,
      "=(": 6402,
      "=-": 6403,
      "=\",": 6404,
      "={\"": 6405,
      ">/": 6406,
      "><": 6407,
      "AG": 6408,
      "Ab": 6409,
      "A100": 6410,
      "Asan": 6411,
      "Air": 6412,
      "Auth": 6413,
      "Cre": 6414,
      "Cla": 6415,
      "CAL": 6416,
      "C_D": 6417,
      "CMake": 6418,
      "Cry": 6419,
      "DP": 6420,
      "DQ": 6421,
      "DU": 6422,
      "Don": 6423,
      "Den": 6424,
      "Det": 6425,
      "DNN": 6426,
      "D_PLATFORM": 6427,
      "Equ": 6428,
      "Each": 6429,
      "EST": 6430,
      "Either": 6431,
      "Equi": 6432,
      "Eik": 6433,
      "EMSG": 6434,
      "FC": 6435,
      "FH": 6436,
      "FL": 6437,
      "FT": 6438,
      "Fro": 6439,
      "Fam": 6440,
      "Fran": 6441,
      "FAL": 6442,
      "FFI": 6443,
      "GN": 6444,
      "GW": 6445,
      "Go": 6446,
      "G_T": 6447,
      "GNU": 6448,
      "Gather": 6449,
      "GT_": 6450,
      "HP": 6451,
      "Hat": 6452,
      "Has": 6453,
      "HAND": 6454,
      "HUN": 6455,
      "Ide": 6456,
      "ITH": 6457,
      "IGN": 6458,
      "KB": 6459,
      "KN": 6460,
      "Lone": 6461,
      "Let": 6462,
      "L35": 6463,
      "L1d": 6464,
      "L33": 6465,
      "L59": 6466,
      "Little": 6467,
      "L146": 6468,
      "LINE": 6469,
      "LT_": 6470,
      "L54": 6471,
      "L698": 6472,
      "L858": 6473,
      "M6": 6474,
      "Mm": 6475,
      "Man": 6476,
      "Mel": 6477,
      "March": 6478,
      "MAT": 6479,
      "Mds": 6480,
      "MUL": 6481,
      "Next": 6482,
      "New": 6483,
      "OP": 6484,
      "OW": 6485,
      "Oct": 6486,
      "Off": 6487,
      "OEN": 6488,
      "O_RDWR": 6489,
      "OEX": 6490,
      "PE": 6491,
      "PS": 6492,
      "Pl": 6493,
      "Po": 6494,
      "P16": 6495,
      "Pri": 6496,
      "PER": 6497,
      "PAND": 6498,
      "PEC": 6499,
      "Paper": 6500,
      "QDQ": 6501,
      "Ra": 6502,
      "Rand": 6503,
      "Ret": 6504,
      "RAI": 6505,
      "RFC": 6506,
      "S5": 6507,
      "SW": 6508,
      "Sm": 6509,
      "Sw": 6510,
      "Sur": 6511,
      "Sim": 6512,
      "SAV": 6513,
      "Sample": 6514,
      "SLAT": 6515,
      "SOL": 6516,
      "Srb": 6517,
      "SOCK": 6518,
      "T5": 6519,
      "Ts": 6520,
      "Tes": 6521,
      "T02": 6522,
      "Tsa": 6523,
      "Tri": 6524,
      "Tup": 6525,
      "TNC": 6526,
      "Tensors": 6527,
      "TEN": 6528,
      "TED": 6529,
      "U1": 6530,
      "U3": 6531,
      "Use": 6532,
      "UNC": 6533,
      "UNE": 6534,
      "V4": 6535,
      "Vol": 6536,
      "Vend": 6537,
      "VTable": 6538,
      "Vision": 6539,
      "WN": 6540,
      "Wr": 6541,
      "Wang": 6542,
      "Would": 6543,
      "Warn": 6544,
      "Xe": 6545,
      "XES": 6546,
      "Xia": 6547,
      "XPEC": 6548,
      "Yes": 6549,
      "Yet": 6550,
      "YNC": 6551,
      "[(": 6552,
      "[{'": 6553,
      "][": 6554,
      "]]": 6555,
      "]`.": 6556,
      "]])": 6557,
      "]\"`": 6558,
      "]})": 6559,
      "_1": 6560,
      "_un": 6561,
      "_so": 6562,
      "_for": 6563,
      "_tr": 6564,
      "_type": 6565,
      "_cs": 6566,
      "_output": 6567,
      "_transformers": 6568,
      "_gener": 6569,
      "_only": 6570,
      "_ign": 6571,
      "_float": 6572,
      "_module": 6573,
      "_args": 6574,
      "_state": 6575,
      "_ctypes": 6576,
      "_range": 6577,
      "_key": 6578,
      "_raise": 6579,
      "_suite": 6580,
      "_post": 6581,
      "_chang": 6582,
      "_start": 6583,
      "_loop": 6584,
      "_forward": 6585,
      "_mapping": 6586,
      "_o2": 6587,
      "_AR": 6588,
      "_available": 6589,
      "_qm": 6590,
      "_DIS": 6591,
      "_bytes": 6592,
      "_heads": 6593,
      "_MA": 6594,
      "_perform": 6595,
      "_errors": 6596,
      "_sysconfig": 6597,
      "_consistent": 6598,
      "_INE": 6599,
      "_subclass": 6600,
      "_leaks": 6601,
      "_unlimit": 6602,
      "_runtest": 6603,
      "_process_group": 6604,
      "_224": 6605,
      "_eigen": 6606,
      "_runtest_": 6607,
      "_quantize_tensor": 6608,
      "_references": 6609,
      "_set_names": 6610,
      "_save_file": 6611,
      "_POSIX": 6612,
      "_USE": 6613,
      "_label": 6614,
      "_body": 6615,
      "_Conta": 6616,
      "_good": 6617,
      "_zeros": 6618,
      "_sequentially": 6619,
      "_IGN": 6620,
      "_OP": 6621,
      "`*": 6622,
      "`--": 6623,
      "`//": 6624,
      "a4": 6625,
      "a6": 6626,
      "avi": 6627,
      "a10": 6628,
      "aws": 6629,
      "ahead": 6630,
      "amax": 6631,
      "a58": 6632,
      "a57": 6633,
      "apart": 6634,
      "a_int": 6635,
      "b02": 6636,
      "bab": 6637,
      "big": 6638,
      "b64": 6639,
      "b15": 6640,
      "bsocket": 6641,
      "b09": 6642,
      "bts": 6643,
      "b_int": 6644,
      "bv1": 6645,
      "c2": 6646,
      "c6": 6647,
      "cla": 6648,
      "cum": 6649,
      "clin": 6650,
      "c88": 6651,
      "c28": 6652,
      "c45": 6653,
      "c_int": 6654,
      "cmov": 6655,
      "custom": 6656,
      "cibly": 6657,
      "c515": 6658,
      "crete": 6659,
      "dc": 6660,
      "dlo": 6661,
      "dtr": 6662,
      "dther": 6663,
      "dtes": 6664,
      "dts": 6665,
      "ditional": 6666,
      "dbm": 6667,
      "d5d": 6668,
      "d657": 6669,
      "ek": 6670,
      "eas": 6671,
      "ept": 6672,
      "eager": 6673,
      "eIBRS": 6674,
      "fu": 6675,
      "fx": 6676,
      "fal": 6677,
      "fct": 6678,
      "fmp": 6679,
      "fma": 6680,
      "f02": 6681,
      "fsr": 6682,
      "fpu": 6683,
      "fni": 6684,
      "f3a": 6685,
      "f82": 6686,
      "f_local": 6687,
      "f3b": 6688,
      "fmon": 6689,
      "gl": 6690,
      "gn": 6691,
      "gin": 6692,
      "ges": 6693,
      "gpt": 6694,
      "gress": 6695,
      "gong": 6696,
      "gsignal": 6697,
      "gives": 6698,
      "gt__": 6699,
      "gfni": 6700,
      "hex": 6701,
      "hpro": 6702,
      "hist": 6703,
      "hits": 6704,
      "hance": 6705,
      "harn": 6706,
      "hence": 6707,
      "hf_": 6708,
      "ias": 6709,
      "ima": 6710,
      "iel": 6711,
      "imit": 6712,
      "imed": 6713,
      "ivar": 6714,
      "ived": 6715,
      "ivalent": 6716,
      "ji": 6717,
      "jing": 6718,
      "jgong": 6719,
      "kn": 6720,
      "kul": 6721,
      "ln": 6722,
      "lp": 6723,
      "lr": 6724,
      "mce": 6725,
      "mca": 6726,
      "msr": 6727,
      "mits": 6728,
      "mast": 6729,
      "mally": 6730,
      "mir": 6731,
      "masks": 6732,
      "much": 6733,
      "n1": 6734,
      "nx": 6735,
      "ning": 6736,
      "nally": 6737,
      "narrow": 6738,
      "nLoaded": 6739,
      "nlp": 6740,
      "oth": 6741,
      "ole": 6742,
      "olo": 6743,
      "occurre": 6744,
      "pit": 6745,
      "pge": 6746,
      "pbe": 6747,
      "pti": 6748,
      "pur": 6749,
      "port": 6750,
      "pare": 6751,
      "pite": 6752,
      "pke": 6753,
      "pret": 6754,
      "prep": 6755,
      "pthread": 6756,
      "pconfig": 6757,
      "pni": 6758,
      "pretrained": 6759,
      "pins": 6760,
      "pgo": 6761,
      "pulate": 6762,
      "phy": 6763,
      "padding": 6764,
      "qa": 6765,
      "qcmd": 6766,
      "ral": 6767,
      "rat": 6768,
      "ris": 6769,
      "rdi": 6770,
      "rub": 6771,
      "rates": 6772,
      "rtual": 6773,
      "s1": 6774,
      "s2": 6775,
      "sv": 6776,
      "sz": 6777,
      "sat": 6778,
      "slo": 6779,
      "sme": 6780,
      "spo": 6781,
      "squ": 6782,
      "sens": 6783,
      "sli": 6784,
      "swe": 6785,
      "spl": 6786,
      "smap": 6787,
      "sical": 6788,
      "speech": 6789,
      "slot": 6790,
      "sdb": 6791,
      "speed": 6792,
      "spea": 6793,
      "t1": 6794,
      "tf": 6795,
      "tl": 6796,
      "ton": 6797,
      "tun": 6798,
      "tme": 6799,
      "tmp": 6800,
      "tdown": 6801,
      "t_a": 6802,
      "tell": 6803,
      "tutorial": 6804,
      "uct": 6805,
      "ura": 6806,
      "umo": 6807,
      "upp": 6808,
      "u97": 6809,
      "ufuncs": 6810,
      "v5": 6811,
      "vme": 6812,
      "vation": 6813,
      "vulnerability": 6814,
      "vous": 6815,
      "vcx": 6816,
      "vaes": 6817,
      "vpclmulqdq": 6818,
      "ww": 6819,
      "wal": 6820,
      "wan": 6821,
      "wel": 6822,
      "wav": 6823,
      "warn": 6824,
      "w_de": 6825,
      "wire": 6826,
      "wik": 6827,
      "x3": 6828,
      "xx": 6829,
      "xy": 6830,
      "xto": 6831,
      "xtr": 6832,
      "xget": 6833,
      "xmask": 6834,
      "x_bf16": 6835,
      "xsaves": 6836,
      "x2apic": 6837,
      "ym": 6838,
      "yle": 6839,
      "yml": 6840,
      "yiel": 6841,
      "zlib": 6842,
      "zhe": 6843,
      "zinfo": 6844,
      "zen_": 6845,
      "zuc": 6846,
      "zvous": 6847,
      "{...": 6848,
      "}]": 6849,
      "}},": 6850,
      "ini": 6851,
      "inse": 6852,
      "inline": 6853,
      "inom": 6854,
      "inks": 6855,
      "infl": 6856,
      "incur": 6857,
      "thir": 6858,
      "ones": 6859,
      "onto": 6860,
      "onsh": 6861,
      "onic": 6862,
      "era": 6863,
      "erf": 6864,
      "erms": 6865,
      "erVTable": 6866,
      "orary": 6867,
      "orical": 6868,
      "ormal": 6869,
      "origin": 6870,
      "align": 6871,
      "along": 6872,
      "alignment": 6873,
      "alia": 6874,
      "alias": 6875,
      "another": 6876,
      "anks": 6877,
      "anization": 6878,
      "an_po": 6879,
      "anWang": 6880,
      "atom": 6881,
      "atal_": 6882,
      "atives": 6883,
      "req": 6884,
      "rework": 6885,
      "reda": 6886,
      "really": 6887,
      "rebuilds": 6888,
      "recover": 6889,
      "regenerated": 6890,
      "reified": 6891,
      "reuses": 6892,
      "pydev": 6893,
      "pybind": 6894,
      "enabled": 6895,
      "enough": 6896,
      "endian": 6897,
      "enhance": 6898,
      "enqcmd": 6899,
      "isol": 6900,
      "isions": 6901,
      "is_local": 6902,
      "is_dir": 6903,
      "isVi": 6904,
      "edu": 6905,
      "edy": 6906,
      "edError": 6907,
      "editor": 6908,
      "arat": 6909,
      "arsh": 6910,
      "arpack": 6911,
      "arxi": 6912,
      "arou": 6913,
      "arily": 6914,
      "asci": 6915,
      "asure": 6916,
      "asheet": 6917,
      "lev": 6918,
      "lear": 6919,
      "learn": 6920,
      "legit": 6921,
      "itext": 6922,
      "ionally": 6923,
      "ingFlagsWithName": 6924,
      "deco": 6925,
      "delib": 6926,
      "dequant": 6927,
      "dezvous": 6928,
      "cha": 6929,
      "chron": 6930,
      "chini": 6931,
      "utility": 6932,
      "andir": 6933,
      "ctx": 6934,
      "cting": 6935,
      "ctree": 6936,
      "ctime": 6937,
      "room": 6938,
      "rogate": 6939,
      "rocm": 6940,
      "stad": 6941,
      "stamp": 6942,
      "stated": 6943,
      "states": 6944,
      "stanti": 6945,
      "stained": 6946,
      "stibp": 6947,
      "style": 6948,
      "lose": 6949,
      "001": 6950,
      "004": 6951,
      "005": 6952,
      "0002": 6953,
      "0090": 6954,
      "unpack": 6955,
      "unhash": 6956,
      "unorder": 6957,
      "unmodified": 6958,
      "unMain": 6959,
      "unwind": 6960,
      "undefined": 6961,
      "unslo": 6962,
      "se3": 6963,
      "sep": 6964,
      "select": 6965,
      "cope": 6966,
      "cour": 6967,
      "cogn": 6968,
      "exes": 6969,
      "exha": 6970,
      "exclud": 6971,
      "iline": 6972,
      "ilities": 6973,
      "meel": 6974,
      "measure": 6975,
      "python_work": 6976,
      "python_version": 6977,
      "adv": 6978,
      "adx": 6979,
      "adcast": 6980,
      "adjust": 6981,
      "testclient": 6982,
      "fies": 6983,
      "fically": 6984,
      "tour": 6985,
      "today": 6986,
      "tosz": 6987,
      "cki": 6988,
      "cker": 6989,
      "ckpt": 6990,
      "allclose": 6991,
      "entical": 6992,
      "ulation": 6993,
      "ulative": 6994,
      "ulimit": 6995,
      "ceTest": 6996,
      "cewise": 6997,
      "ceee": 6998,
      "cef02": 6999,
      "nown": 7000,
      "nopl": 7001,
      "noise": 7002,
      "noinv": 7003,
      "made": 7004,
      "peer": 7005,
      "pebs": 7006,
      "pe1g": 7007,
      "cont": 7008,
      "contributed": 7009,
      "consum": 7010,
      "consume": 7011,
      "conquer": 7012,
      "concaten": 7013,
      "sup": 7014,
      "sustained": 7015,
      "0x01": 7016,
      "0x000": 7017,
      "0x97": 7018,
      "0xd0": 7019,
      "0x2c": 7020,
      "0x44": 7021,
      "0x03": 7022,
      "0xe4": 7023,
      "0x2a": 7024,
      "0x9eb2c": 7025,
      "0x131": 7026,
      "0x87e": 7027,
      "0x0002": 7028,
      "pod": 7029,
      "polog": 7030,
      "forge": 7031,
      "mogeneous": 7032,
      "la57": 7033,
      "lapse": 7034,
      "lahf_": 7035,
      "Py_R": 7036,
      "PyErr": 7037,
      "PyInter": 7038,
      "PyArray": 7039,
      "intel": 7040,
      "intel_": 7041,
      "score": 7042,
      "scandir": 7043,
      "libscipy": 7044,
      "libtorch": 7045,
      "libtorch_": 7046,
      "usho": 7047,
      "umes": 7048,
      "umip": 7049,
      "umns": 7050,
      "beha": 7051,
      "beyon": 7052,
      "vallez": 7053,
      "162": 7054,
      "165": 7055,
      "try_": 7056,
      "tringFlagsWithName": 7057,
      "ffff": 7058,
      "ffn_": 7059,
      "tile": 7060,
      "tiang": 7061,
      "timm": 7062,
      "tivation": 7063,
      "uran": 7064,
      "urally": 7065,
      "02u": 7066,
      "0255": 7067,
      "domin": 7068,
      "()(": 7069,
      "()]": 7070,
      "()).": 7071,
      "()}\")": 7072,
      "sharing": 7073,
      "div": 7074,
      "diri": 7075,
      "fac": 7076,
      "fair": 7077,
      "abi": 7078,
      "abm": 7079,
      "abilities": 7080,
      "run_single": 7081,
      "ig_forward": 7082,
      "poses": 7083,
      "props": 7084,
      "profile": 7085,
      "proble": 7086,
      "probs": 7087,
      "provid": 7088,
      "program": 7089,
      "progress": 7090,
      "resident": 7091,
      "12f": 7092,
      "1260": 7093,
      "1278": 7094,
      "callback": 7095,
      "**,": 7096,
      "buf": 7097,
      "outError": 7098,
      "outside": 7099,
      "pts": 7100,
      "ptem": 7101,
      "ptexes": 7102,
      "readme": 7103,
      "readline": 7104,
      "readable": 7105,
      "648": 7106,
      "64b": 7107,
      "caps": 7108,
      "__w": 7109,
      "__str": 7110,
      "__config": 7111,
      "__user": 7112,
      "__iter": 7113,
      "__get_": 7114,
      "__hash": 7115,
      "__len": 7116,
      "__pthread_kill": 7117,
      "__eq": 7118,
      "__gt__": 7119,
      "ida": 7120,
      "idx": 7121,
      "idance": 7122,
      "idence": 7123,
      "cls": 7124,
      "clip": 7125,
      "clfl": 7126,
      "clflush": 7127,
      "clwb": 7128,
      "cldemo": 7129,
      "typo": 7130,
      "typi": 7131,
      "torchaudio": 7132,
      "torchvision": 7133,
      "virtual": 7134,
      "Input": 7135,
      "Inte": 7136,
      "Indirect": 7137,
      "InData": 7138,
      "Instruct": 7139,
      "line_tutorial": 7140,
      "experi": 7141,
      "worked": 7142,
      "workload": 7143,
      "duplex": 7144,
      "qux": 7145,
      "quad": 7146,
      "quested": 7147,
      "location": 7148,
      "agent": 7149,
      "implicit": 7150,
      "atch_tokens": 7151,
      "test_runner": 7152,
      "test_func": 7153,
      "test_mmap": 7154,
      "test_asyncio": 7155,
      "test_prec": 7156,
      "test_python_work": 7157,
      "2023": 7158,
      "202105": 7159,
      "isters": 7160,
      "149": 7161,
      "1472": 7162,
      "near": 7163,
      "10a": 7164,
      "1013": 7165,
      "1035": 7166,
      "10_000": 7167,
      "10370": 7168,
      "_PyDict": 7169,
      "1510": 7170,
      "homogeneous": 7171,
      "comb": 7172,
      "prim": 7173,
      "priate": 7174,
      "prctl": 7175,
      "private": 7176,
      "priority": 7177,
      "piro": 7178,
      "compos": 7179,
      "comparing": 7180,
      "endpoint": 7181,
      "1332": 7182,
      "130090": 7183,
      "131278": 7184,
      "131035": 7185,
      "176": 7186,
      "177": 7187,
      "179": 7188,
      "17b": 7189,
      "etch": 7190,
      "etun": 7191,
      "csingle": 7192,
      "tax": 7193,
      "0x7daff2ba": 7194,
      "0x7b64": 7195,
      "da7": 7196,
      "assign": 7197,
      "ubuntu": 7198,
      "array_method": 7199,
      "ricted": 7200,
      "ssbd": 7201,
      "ssse3": 7202,
      "_min": 7203,
      "_mio": 7204,
      "_morestats": 7205,
      "instr": 7206,
      "imports": 7207,
      "ship": 7208,
      ")::": 7209,
      "codec": 7210,
      "get_special_tokens": 7211,
      "getcwd": 7212,
      "getrefcount": 7213,
      "getctime": 7214,
      "ames": 7215,
      "amx_bf16": 7216,
      "jobs": 7217,
      "angling": 7218,
      "Then": 7219,
      "Thanks": 7220,
      "076": 7221,
      "07f2": 7222,
      "lsq": 7223,
      "352": 7224,
      "3531": 7225,
      "35d4": 7226,
      "str_l": 7227,
      "19000": 7228,
      "1905": 7229,
      "pae": 7230,
      "pawn": 7231,
      "perf_": 7232,
      "perplexity": 7233,
      "perfmon": 7234,
      "ed_set": 7235,
      "ed_stack": 7236,
      "ed_recv": 7237,
      "ed_exc": 7238,
      "ed_legacy_": 7239,
      "1007": 7240,
      "1000x": 7241,
      "limits": 7242,
      "time_invalid": 7243,
      "env_chang": 7244,
      "...`,": 7245,
      "solve": 7246,
      "argparse": 7247,
      "Moonsh": 7248,
      "Recur": 7249,
      "Request": 7250,
      "Replace": 7251,
      "Removing": 7252,
      "Remove": 7253,
      "Requested": 7254,
      "elta": 7255,
      "el9_": 7256,
      "update": 7257,
      "up_llc": 7258,
      "rep_good": 7259,
      "cir": 7260,
      "(\"`": 7261,
      "indexing": 7262,
      "solutions": 7263,
      "backtrace": 7264,
      "background": 7265,
      "repository": 7266,
      "outputs": 7267,
      "output_tensors": 7268,
      "setitem": 7269,
      "settimeout": 7270,
      "trained": 7271,
      "ifma": 7272,
      "886": 7273,
      "88Z": 7274,
      "8886": 7275,
      "8887": 7276,
      "88219": 7277,
      "can_c": 7278,
      "otonic": 7279,
      "disk_": 7280,
      "disagree": 7281,
      "324": 7282,
      "327": 7283,
      "32B": 7284,
      "32f": 7285,
      "3200": 7286,
      "32_MA": 7287,
      "produced": 7288,
      "PRO_": 7289,
      "illumo": 7290,
      "collaps": 7291,
      "point_errors": 7292,
      "embed": 7293,
      "emitt": 7294,
      "izes": 7295,
      "tensor_ref": 7296,
      "acpi": 7297,
      "acqui": 7298,
      "accum": 7299,
      "ight1": 7300,
      "209": 7301,
      "20Z": 7302,
      "2050": 7303,
      "20a10": 7304,
      "Debi": 7305,
      "Libc": 7306,
      "finish": 7307,
      "finetun": 7308,
      "configura": 7309,
      "1d5c": 7310,
      "faults": 7311,
      "faulting": 7312,
      "\");": 7313,
      "\")],": 7314,
      "bber": 7315,
      "bb6b": 7316,
      "result_eq": 7317,
      "generally": 7318,
      "recurs": 7319,
      "avg": 7320,
      "websocket": 7321,
      "wecki": 7322,
      "425": 7323,
      "427": 7324,
      "llation": 7325,
      "loader": 7326,
      "_ph": 7327,
      "_patch_tokens": 7328,
      "derives": 7329,
      "pdcm": 7330,
      "pdpe1g": 7331,
      "308": 7332,
      "30B": 7333,
      "_sp": 7334,
      "_spawn": 7335,
      "pln": 7336,
      "organization": 7337,
      "openblas": 7338,
      "apgs": 7339,
      "msarou": 7340,
      "inputline": 7341,
      "scales": 7342,
      "scaled": 7343,
      "scaling": 7344,
      "whenever": 7345,
      "boot": 7346,
      "book": 7347,
      "boole": 7348,
      "interface": 7349,
      "interior": 7350,
      "internally": 7351,
      "headroom": 7352,
      "361": 7353,
      "3686": 7354,
      "3680": 7355,
      "Contro": 7356,
      "Concaten": 7357,
      "Concrete": 7358,
      "Conditional": 7359,
      "0x0000ffff": 7360,
      "180": 7361,
      "devdocs": 7362,
      "dev202607": 7363,
      "aa3ff": 7364,
      "268": 7365,
      "2601": 7366,
      "ing_linear": 7367,
      "ing_rate": 7368,
      "ing_point_errors": 7369,
      "')),": 7370,
      "')},": 7371,
      "479": 7372,
      "47335": 7373,
      "region": 7374,
      "regular": 7375,
      "377": 7376,
      "run_test": 7377,
      "run_main": 7378,
      "run_mod": 7379,
      "run_unittest": 7380,
      "run_trial": 7381,
      "run_compressed": 7382,
      "run_qa": 7383,
      "ForConditional": 7384,
      "acters": 7385,
      "ospke": 7386,
      "bitalg": 7387,
      "([[": 7388,
      "1024": 7389,
      "foo": 7390,
      "four": 7391,
      "~~~~~~~~~": 7392,
      "rstack": 7393,
      "28a": 7394,
      "2843": 7395,
      "='<": 7396,
      "='|": 7397,
      "dfs": 7398,
      "df82": 7399,
      ")`)": 7400,
      "2574": 7401,
      "_c_": 7402,
      "_cpl": 7403,
      "_cython": 7404,
      "_clear": 7405,
      "filing": 7406,
      "000b": 7407,
      "ize_bytes": 7408,
      "460": 7409,
      "_SPA": 7410,
      "_SCAL": 7411,
      "deferr": 7412,
      "111": 7413,
      "4807": 7414,
      "48345": 7415,
      "ANSLAT": 7416,
      "al_eval": 7417,
      "user_": 7418,
      "usercopy": 7419,
      "AS_C": 7420,
      "ASYNC": 7421,
      "TestMe": 7422,
      "licy": 7423,
      "lementary": 7424,
      "0x10024": 7425,
      "0x100246": 7426,
      "processes": 7427,
      "epb": 7428,
      "_b_224": 7429,
      "Provide": 7430,
      "Program": 7431,
      "Proxy": 7432,
      "sha_ni": 7433,
      "shapiro": 7434,
      "new_tokens": 7435,
      ")))": 7436,
      "::(": 7437,
      "handled": 7438,
      "minimal": 7439,
      "minutes": 7440,
      "anyway": 7441,
      "installation": 7442,
      "223": 7443,
      "22f": 7444,
      "2290": 7445,
      "Numpy": 7446,
      "Number": 7447,
      "_nan_po": 7448,
      "guide": 7449,
      "guidance": 7450,
      "27d": 7451,
      "2786": 7452,
      "27b02": 7453,
      "afterward": 7454,
      "class_tutorial": 7455,
      "874": 7456,
      "87aa3ff": 7457,
      "NotImplement": 7458,
      "NotWarn": 7459,
      "binds": 7460,
      "binaries": 7461,
      "cc_s": 7462,
      "ccup_llc": 7463,
      "random_po": 7464,
      "grade": 7465,
      "convergence": 7466,
      "failureException": 7467,
      "_vnni": 7468,
      "arch_l": 7469,
      "supports": 7470,
      "4559": 7471,
      "23b15": 7472,
      "APPA": 7473,
      "imate": 7474,
      "prevent": 7475,
      "init_process_group": 7476,
      "first_bad": 7477,
      "namespace": 7478,
      "REF": 7479,
      "[\"--": 7480,
      "date_range": 7481,
      "err2": 7482,
      "iter_": 7483,
      "iterator": 7484,
      "iternext": 7485,
      "iterables": 7486,
      "safe_save_file": 7487,
      "from_arrays": 7488,
      "IsNone": 7489,
      "Isalia": 7490,
      "ONS": 7491,
      "ON_FAI": 7492,
      "md_clear": 7493,
      "mmx": 7494,
      "state__": 7495,
      "integers": 7496,
      "num_key": 7497,
      "LE_": 7498,
      "['-": 7499,
      "['.": 7500,
      "['--": 7501,
      "_metric": 7502,
      "_metal_": 7503,
      "cketkn": 7504,
      "backends": 7505,
      "avx2": 7506,
      "avx_vnni": 7507,
      "documenting": 7508,
      "converting": 7509,
      "convert_tokens": 7510,
      "2d0": 7511,
      "2d242": 7512,
      "334": 7513,
      "_total": 7514,
      "_toctree": 7515,
      "ds_cpl": 7516,
      "design": 7517,
      "descri": 7518,
      "despite": 7519,
      "nonstop": 7520,
      "scale_b": 7521,
      "scale_a": 7522,
      "DIR": 7523,
      "_decomp": 7524,
      "_default": 7525,
      "_dequantize_tensor": 7526,
      "cu12": 7527,
      "cu130": 7528,
      "cuDNN": 7529,
      "myself": 7530,
      "timer": 7531,
      "identity": 7532,
      "confirms": 7533,
      "ERT": 7534,
      "baz": 7535,
      "ska": 7536,
      "dir64b": 7537,
      "regrtest_runner": 7538,
      "CUBLAS": 7539,
      "assertTrue": 7540,
      "assertFalse": 7541,
      "assertNotWarn": 7542,
      "assertIsNone": 7543,
      "flagging": 7544,
      "flagged": 7545,
      "Where": 7546,
      "Which": 7547,
      "miss": 7548,
      "missed": 7549,
      "smx": 7550,
      "smith": 7551,
      "ids_to_": 7552,
      "variances": 7553,
      "variables": 7554,
      "0x7f4ff40e2786": 7555,
      "55df7": 7556,
      "closes": 7557,
      "closure": 7558,
      "clobber": 7559,
      "git220": 7560,
      "gitf3b": 7561,
      "git23b15": 7562,
      "multihit": 7563,
      "sources": 7564,
      "avx512f": 7565,
      "avx512cd": 7566,
      "avx512dq": 7567,
      "avx512bw": 7568,
      "avx512_bf16": 7569,
      "avx512ifma": 7570,
      "CLOEX": 7571,
      "Enhanced": 7572,
      "Endian": 7573,
      "`);": 7574,
      "specifies": 7575,
      "coords": 7576,
      "dictobject": 7577,
      "commits": 7578,
      "commonly": 7579,
      "systematic": 7580,
      "tokenizers": 7581,
      "tokenize_bytes": 7582,
      "follows": 7583,
      "582": 7584,
      "5848345": 7585,
      "6637": 7586,
      "66334": 7587,
      "bleed": 7588,
      "partially": 7589,
      "signals": 7590,
      "843": 7591,
      "splitext": 7592,
      "split_lock_detect": 7593,
      "tening": 7594,
      "xldtr": 7595,
      "subtra": 7596,
      "subprocess": 7597,
      "substanti": 7598,
      "000000000000": 7599,
      "Train": 7600,
      "TraceTest": 7601,
      "void": 7602,
      "voxtr": 7603,
      "iginally": 7604,
      "internalcapi": 7605,
      "0x00007f4ff": 7606,
      "0x00007daff2ba": 7607,
      "APIRouter": 7608,
      "24512": 7609,
      "565": 7610,
      "567": 7611,
      "793": 7612,
      "794": 7613,
      "Adding": 7614,
      "autoclass_tutorial": 7615,
      "equivalent": 7616,
      "manif": 7617,
      "conversion_mapping": 7618,
      "save_path": 7619,
      "9156": 7620,
      "Dataframe": 7621,
      "Loop": 7622,
      "Local": 7623,
      "Location": 7624,
      "LoRA": 7625,
      "OpenMPI": 7626,
      "flattens": 7627,
      "flat_hash": 7628,
      "ins_K": 7629,
      "stdlib": 7630,
      "surface": 7631,
      "surfacing": 7632,
      "therefore": 7633,
      "underlying": 7634,
      "341": 7635,
      "998": 7636,
      "Itlb": 7637,
      "Struct": 7638,
      "unicode": 7639,
      "conditional": 7640,
      "moshiko": 7641,
      "moshi_transformers": 7642,
      "core_model_": 7643,
      "_l1d": 7644,
      "_large": 7645,
      "_rng": 7646,
      "base_compile": 7647,
      "ec759": 7648,
      "rdrand": 7649,
      "rdtsc": 7650,
      "rdseed": 7651,
      "rdpid": 7652,
      "rdt_a": 7653,
      "silent": 7654,
      "remove": 7655,
      "removing": 7656,
      "covered": 7657,
      "covering": 7658,
      "ficial": 7659,
      "sometimes": 7660,
      "Reproducer": 7661,
      "296": 7662,
      "38308": 7663,
      "52Z": 7664,
      "52a58": 7665,
      "PY_SU": 7666,
      "PYD_PLATFORM": 7667,
      "Vallez": 7668,
      "goMI": 7669,
      "google": 7670,
      "kwarg": 7671,
      "kwds": 7672,
      "restype": 7673,
      "restores": 7674,
      "restricted": 7675,
      "ordered": 7676,
      "lecting": 7677,
      "implemented": 7678,
      "_base_impl": 7679,
      "StringIO": 7680,
      "3901": 7681,
      "Andro": 7682,
      "MySet": 7683,
      "Rocketkn": 7684,
      "]`).": 7685,
      "_TAG": 7686,
      "_TEST": 7687,
      "cbdb": 7688,
      "default_rng": 7689,
      "stacklevel": 7690,
      "extractor": 7691,
      "SIG_D": 7692,
      "SIG_IGN": 7693,
      "initializes": 7694,
      "3fn": 7695,
      "_DES": 7696,
      "ebf9": 7697,
      "tsxldtr": 7698,
      "consult": 7699,
      "elsewhere": 7700,
      "languageName": 7701,
      "0x00007909b": 7702,
      "0x00007909aa": 7703,
      "MemoryError": 7704,
      "GitConfig": 7705,
      "GitVision": 7706,
      "distutils": 7707,
      "dist_main": 7708,
      "dist_body": 7709,
      "event": 7710,
      "evidence": 7711,
      "image_patch_tokens": 7712,
      "invol": 7713,
      "legal": 7714,
      "char_p": 7715,
      "characters": 7716,
      "roughly": 7717,
      "toolset": 7718,
      "crashing": 7719,
      "0x000000000000000b": 7720,
      "dependent": 7721,
      "dependency": 7722,
      "\"]})": 7723,
      "3c0": 7724,
      "3c52a58": 7725,
      "VC6": 7726,
      "eigh": 7727,
      "f16c": 7728,
      "sortorder": 7729,
      "detect_leaks": 7730,
      "input_tensors": 7731,
      "shift_logits": 7732,
      "writes": 7733,
      "(...,": 7734,
      "(...).": 7735,
      "4efac": 7736,
      "Currently": 7737,
      "Impact": 7738,
      "Improve": 7739,
      "Union": 7740,
      "_FP16": 7741,
      "cp313": 7742,
      "fetch": 7743,
      "gsbase": 7744,
      "killed": 7745,
      "sionError": 7746,
      "streams": 7747,
      "completed": 7748,
      "blocked_recv": 7749,
      "0x10247f7": 7750,
      "skipping": 7751,
      "known_f": 7752,
      "691": 7753,
      "9610a": 7754,
      "ABI": 7755,
      "ABORT": 7756,
      "ARY": 7757,
      "ARCH": 7758,
      "MIOpen": 7759,
      "`\"[": 7760,
      "`\"%.": 7761,
      "e90000": 7762,
      "filled": 7763,
      "tsc_dead": 7764,
      "themselves": 7765,
      "leader": 7766,
      "launched": 7767,
      "INT_RE": 7768,
      "INT32_MA": 7769,
      "~~~~~~~~~~~~~~~~~~": 7770,
      "~~~~~~~~~~~~~~~~~~~~": 7771,
      "~~~~~~~~~~~~~~~~~~~~~~~~": 7772,
      "0x10023ee": 7773,
      "0x10023f3a": 7774,
      "Compressed": 7775,
      "0x0000790a43": 7776,
      "1c9": 7777,
      "31Z": 7778,
      "ENOEN": 7779,
      "MinGW": 7780,
      "_e4m": 7781,
      "_run_test": 7782,
      "_run_code": 7783,
      "_run_tests": 7784,
      "_run_suite": 7785,
      "crosses": 7786,
      "fcf": 7787,
      "greedy": 7788,
      "na_object": 7789,
      "pthread_exit": 7790,
      "er_frame": 7791,
      "er_bound": 7792,
      "remainder": 7793,
      "locked": 7794,
      "loss_fct": 7795,
      "_SUFFI": 7796,
      "segmentation_no_trainer": 7797,
      "']}},": 7798,
      "Byte": 7799,
      "Bypass": 7800,
      "Socket": 7801,
      "THIS": 7802,
      "_as_main": 7803,
      "_int_object": 7804,
      "_locale": 7805,
      "rejected": 7806,
      "nowpref": 7807,
      "0x1033e": 7808,
      "146210": 7809,
      "model_sharing": 7810,
      "Converting": 7811,
      "0x000000010": 7812,
      "0x000000016da15": 7813,
      "5315": 7814,
      "53076": 7815,
      "Operation": 7816,
      "POINTER": 7817,
      "States": 7818,
      "Store": 7819,
      "TRL": 7820,
      "TRAC": 7821,
      "TRANSLAT": 7822,
      "Withdra": 7823,
      "broke": 7824,
      "broadcast": 7825,
      "denormal": 7826,
      "landed": 7827,
      "ncpy": 7828,
      "swapp": 7829,
      "swallowed": 7830,
      "swapgs": 7831,
      "allows": 7832,
      "left_val": 7833,
      "sequences": 7834,
      "node0": 7835,
      "node1": 7836,
      "absent": 7837,
      "aborts": 7838,
      "capable": 7839,
      "capabilities": 7840,
      "check_stable": 7841,
      "check_daemon_threads_shutdown": 7842,
      "keep_references": 7843,
      "Modular": 7844,
      "30163": 7845,
      "SION_SUFFI": 7846,
      "===================================": 7847,
      "16d0c89b875": 7848,
      "118ec759": 7849,
      "67f": 7850,
      "67794": 7851,
      "Order": 7852,
      "Originally": 7853,
      "SUMM": 7854,
      "_testcapi": 7855,
      "_testinternalcapi": 7856,
      "_callTestMe": 7857,
      "_caller_frame": 7858,
      "_value_heads": 7859,
      "_convert_dtypes": 7860,
      "binary_po": 7861,
      "clear": 7862,
      "cpuid": 7863,
      "cpuid_": 7864,
      "cqm_o": 7865,
      "cqm_llc": 7866,
      "fsgsbase": 7867,
      "monitor": 7868,
      "monotonic": 7869,
      "natively": 7870,
      "tuple": 7871,
      "xtpr": 7872,
      "utf8": 7873,
      "successful": 7874,
      "lazily": 7875,
      "questions": 7876,
      "test_encode_object": 7877,
      "test_encode_large": 7878,
      "performs": 7879,
      "required": 7880,
      "requirement": 7881,
      "container": 7882,
      "flattened": 7883,
      "Weights": 7884,
      "maintains": 7885,
      "3dbb": 7886,
      "3dnowpref": 7887,
      "31963": 7888,
      "Discus": 7889,
      "June": 7890,
      "Super": 7891,
      "WRAP": 7892,
      "_orig_forward": 7893,
      "barriers": 7894,
      "cd17b": 7895,
      "f9d0": 7896,
      "multiling": 7897,
      "multinom": 7898,
      "o1_eq": 7899,
      "right_val": 7900,
      "independently": 7901,
      "repeat": 7902,
      "construction": 7903,
      "movbe": 7904,
      "movdiri": 7905,
      "movdir64b": 7906,
      "intentionally": 7907,
      "properly": 7908,
      "property": 7909,
      "properties": 7910,
      "simd_exp": 7911,
      "uredTraceTest": 7912,
      "Exceeds": 7913,
      "46902": 7914,
      "^^^^^^^^^^^^^^^^^^^^^^^^^^": 7915,
      "SDPA": 7916,
      "flush_l1d": 7917,
      "Qwen3VL": 7918,
      "8e6d": 7919,
      "Automatic": 7920,
      "ASIMDDP": 7921,
      "ASIMDFH": 7922,
      "ASIMDHP": 7923,
      "E_DIR": 7924,
      "E_POINTER": 7925,
      "FAILED": 7926,
      "Identical": 7927,
      "O_CLOEX": 7928,
      "OOMs": 7929,
      "Warnings": 7930,
      "_fatal_": 7931,
      "nullable": 7932,
      "nullopt": 7933,
      "sse2": 7934,
      "sentence": 7935,
      "slawecki": 7936,
      "iness": 7937,
      "atalman": 7938,
      "channel": 7939,
      "modernization": 7940,
      "Regression": 7941,
      "set_printoptions": 7942,
      "result_same": 7943,
      "ignore_index": 7944,
      "ignore_na": 7945,
      "ignore_float": 7946,
      "appropriate": 7947,
      "0x7f4ff43ae4": 7948,
      "ORT_TI": 7949,
      "_cytest": 7950,
      "_cyutility": 7951,
      "libcudnn": 7952,
      "repro_shift": 7953,
      "Fixes": 7954,
      "_DYNAMO": 7955,
      "ACKTRAC": 7956,
      "bmi1": 7957,
      "wrapped_legacy_": 7958,
      "inheritable": 7959,
      "RangeIndexes": 7960,
      "break": 7961,
      "OMPI_COMM_WORLD_SIZE": 7962,
      "OMPI_COMM_WORLD_RANK": 7963,
      "2fceee": 7964,
      "3474": 7965,
      "={},": 7966,
      "Docs": 7967,
      "IDATE": 7968,
      "July": 7969,
      "L610": 7970,
      "PPORT_TI": 7971,
      "_WITH": 7972,
      "cx8": 7973,
      "cx16": 7974,
      "creates": 7975,
      "lone_surrogate": 7976,
      "public": 7977,
      "purely": 7978,
      "precision": 7979,
      "treated": 7980,
      "wcsncpy": 7981,
      "searched": 7982,
      "mpirun": 7983,
      "testCmsgTruncLen": 7984,
      "clone3": 7985,
      "corrupts": 7986,
      "0x7f4ff3a2a": 7987,
      "0x7f4ff3a9eb2c": 7988,
      "updated": 7989,
      "settings": 7990,
      "discoverable": 7991,
      "tempfile": 7992,
      "temporary": 7993,
      "predicting": 7994,
      "objTo": 7995,
      "preserve": 7996,
      "0x0000790a41c": 7997,
      "BytesMain": 7998,
      "controller": 7999,
      "smoke_test": 8000,
      "duplicates": 8001,
      "3e0": 8002,
      "ARED": 8003,
      "FPV4": 8004,
      "HIP": 8005,
      "MAP_SH": 8006,
      "Official": 8007,
      "OfMemoryError": 8008,
      "OutOfMemoryError": 8009,
      "Preboot": 8010,
      "RSB": 8011,
      "SSE3": 8012,
      "Speculative": 8013,
      "TimeoutError": 8014,
      "_VFPV4": 8015,
      "_in_mat": 8016,
      "_in_caller_frame": 8017,
      "bring": 8018,
      "brid": 8019,
      "c_char_p": 8020,
      "cython_": 8021,
      "flife": 8022,
      "gather_for": 8023,
      "hierarchy": 8024,
      "honor": 8025,
      "honored": 8026,
      "honors": 8027,
      "pse36": 8028,
      "situation": 8029,
      "spawn": 8030,
      "turns": 8031,
      "xsavec": 8032,
      "xsaveopt": 8033,
      "attention": 8034,
      "leaving": 8035,
      "dotted": 8036,
      "propagate": 8037,
      "ppa1": 8038,
      "improvements": 8039,
      "operation": 8040,
      "syntheti": 8041,
      "synchron": 8042,
      "INVALIDATE": 8043,
      "algorithm": 8044,
      "0x7f4ff40ddbc1": 8045,
      "sanitizers": 8046,
      "described": 8047,
      "avx512_vnni": 8048,
      "avx512_vbmi2": 8049,
      "avx512_vpopcnt": 8050,
      "save_repro": 8051,
      "restored_1d": 8052,
      "AVX512_KN": 8053,
      "Importing": 8054,
      "POSITI": 8055,
      "constants": 8056,
      "constant_tsc": 8057,
      "find_allocation_covering_linear": 8058,
      "NEON_FP16": 8059,
      "NEON_VFPV4": 8060,
      "0x7b4fea66d2": 8061,
      "torch_npu_available": 8062,
      "libcudnn_engines": 8063,
      "Both": 8064,
      "BogoMI": 8065,
      "FILE": 8066,
      "PBRSB": 8067,
      "Setting": 8068,
      "TIONS": 8069,
      "ZipFile": 8070,
      "_alive": 8071,
      "_get_metal_": 8072,
      "_openblas": 8073,
      "bartosz": 8074,
      "c0cbdb": 8075,
      "catches": 8076,
      "draft": 8077,
      "f62050": 8078,
      "f6df82": 8079,
      "freed": 8080,
      "future": 8081,
      "halflife": 8082,
      "pku": 8083,
      "tm2": 8084,
      "ucrtbase": 8085,
      "wbnoinv": 8086,
      "eriu97": 8087,
      "pytest_runtest_": 8088,
      "pymain_run_": 8089,
      "pymain_main": 8090,
      "en_GB": 8091,
      "stsq": 8092,
      "concern": 8093,
      "concerns": 8094,
      "0x7f4ff44e35d4": 8095,
      "0x7f4ff44e3dbb": 8096,
      "tracker": 8097,
      "has_allocation": 8098,
      "acquired": 8099,
      "_single_output": 8100,
      "0x00000000004": 8101,
      "0x7f4ff43aa843": 8102,
      "servable": 8103,
      "REAM": 8104,
      "convert_ids_to_": 8105,
      "convert_moshi_transformers": 8106,
      "variants": 8107,
      "factorize_from_iterables": 8108,
      "0x0000790a116a5": 8109,
      "discussions": 8110,
      "NVSHMEMSymmetricMemoryTest": 8111,
      "succeeded": 8112,
      "destroyed": 8113,
      "Len0Minus1": 8114,
      "published": 8115,
      "transients": 8116,
      "practice": 8117,
      "_initialize_weights": 8118,
      "benchmar": 8119,
      "builtin_exec_impl": 8120,
      "1b0255": 8121,
      "2250": 8122,
      "AF_INE": 8123,
      "BHI_DIS": 8124,
      "Blacksmith": 8125,
      "Columns": 8126,
      "Collecting": 8127,
      "Common": 8128,
      "Categorical": 8129,
      "Checkpoint": 8130,
      "EXTEN": 8131,
      "Flattening": 8132,
      "GRPO": 8133,
      "GRAPPA": 8134,
      "L1i": 8135,
      "L1tf": 8136,
      "ROCM": 8137,
      "ROCm": 8138,
      "SXM4": 8139,
      "SXM6": 8140,
      "Trans": 8141,
      "Transient": 8142,
      "ULP": 8143,
      "VSCMD": 8144,
      "_uarray": 8145,
      "_ufuncs": 8146,
      "aperfmp": 8147,
      "literal": 8148,
      "literal_eval": 8149,
      "r0_mask": 8150,
      "r0_2": 8151,
      "slightly": 8152,
      "vidual": 8153,
      "artifacts": 8154,
      "demo_suite": 8155,
      "ibrs_en": 8156,
      "semanti": 8157,
      "suggests": 8158,
      "libgdbm": 8159,
      "libgcc_s": 8160,
      "trusted": 8161,
      "trust_remote": 8162,
      "shards": 8163,
      "shard_state": 8164,
      "promises": 8165,
      "promising": 8166,
      "__setitem__": 8167,
      "__setstate__": 8168,
      "queries": 8169,
      "test_posix_fallocate": 8170,
      "test_posix_pty_": 8171,
      "pipeline_tutorial": 8172,
      "^^^^^^^^^^^^^^": 8173,
      "_matfuncs": 8174,
      "amx_int8": 8175,
      "amx_tile": 8176,
      "permalink": 8177,
      "permalinks": 8178,
      "representative": 8179,
      "genuinely": 8180,
      "cancel": 8181,
      "cancellation": 8182,
      "_swil": 8183,
      "run_tests_sequentially": 8184,
      "actively": 8185,
      "0x7f4ff4387b22": 8186,
      "0x7f4ff438767f": 8187,
      "serialize": 8188,
      "ASAN_OP": 8189,
      "0x1003515": 8190,
      "0x102720a10": 8191,
      "0x10274efac": 8192,
      "max_new_tokens": 8193,
      "_ni_label": 8194,
      "MS_ASYNC": 8195,
      "MS_INVALIDATE": 8196,
      "arch_perfmon": 8197,
      "arch_capabilities": 8198,
      "trivial_single_output": 8199,
      "avx512_fp16": 8200,
      "avx512_bitalg": 8201,
      "avx512vl": 8202,
      "avx512vbmi": 8203,
      "CLIP": 8204,
      "inspecting": 8205,
      "Argument": 8206,
      "Architecture": 8207,
      "PYTORCH_PR": 8208,
      "PYTORCH_TEST": 8209,
      "_affine_quantize_tensor": 8210,
      "_affine_dequantize_tensor": 8211,
      "gemma3n": 8212,
      "Keeping": 8213,
      "cat_l2": 8214,
      "cat_l3": 8215,
      "tsc_adjust": 8216,
      "tsc_known_f": 8217,
      "certainly": 8218,
      "30164217": 8219,
      "30164219": 8220,
      "legacy_array_method": 8221,
      "cqm_mbm_local": 8222,
      "cqm_mbm_total": 8223,
      "________________________": 8224,
      "Supplementary": 8225,
      "Solutions": 8226,
      "cdp_l2": 8227,
      "cdp_l3": 8228,
      "sse4_2": 8229,
      "sse4_1": 8230,
      "quickly": 8231,
      "quicktour": 8232,
      "0x0000790a4309": 8233,
      "Cyrilvallez": 8234,
      "CyrilVallez": 8235,
      "waitpkg": 8236,
      "investigate": 8237,
      "investigating": 8238,
      "X86_V3": 8239,
      "X86_V4": 8240,
      "faulthandler_fatal_": 8241,
      "*/*`": 8242,
      "119135": 8243,
      "4457": 8244,
      "519fe": 8245,
      "897c45": 8246,
      "9453c52a58": 8247,
      "According": 8248,
      "Files": 8249,
      "GPT": 8250,
      "Hardware": 8251,
      "L2564": 8252,
      "L668": 8253,
      "Missing": 8254,
      "PDT": 8255,
      "Silent": 8256,
      "Specifically": 8257,
      "Vari": 8258,
      "_load_run_test": 8259,
      "_function_base_impl": 8260,
      "_columns_": 8261,
      "_United": 8262,
      "_wrapfunc": 8263,
      "a9cef02": 8264,
      "bus_lock_detect": 8265,
      "dashboard": 8266,
      "earlier": 8267,
      "ecc2": 8268,
      "f8b09": 8269,
      "given": 8270,
      "huge": 8271,
      "lanes": 8272,
      "mkdir": 8273,
      "mtrr": 8274,
      "warp": 8275,
      "|-----------|": 8276,
      "threshold": 8277,
      "essentially": 8278,
      "rendezvous": 8279,
      "reduction": 8280,
      "record": 8281,
      "recipe": 8282,
      "reconcil": 8283,
      "is_torch_npu_available": 8284,
      "rollout": 8285,
      "unconditionally": 8286,
      "exercis": 8287,
      "conflicting": 8288,
      "Py_BytesMain": 8289,
      "trigger": 8290,
      "shorthand": 8291,
      "divergence": 8292,
      "protocol": 8293,
      "resolves": 8294,
      "budget": 8295,
      "typed": 8296,
      "Initial": 8297,
      "line_timer": 8298,
      "exports": 8299,
      "153785": 8300,
      "hoists": 8301,
      "piecewise": 8302,
      "178150": 8303,
      "0x7c9453c52a58": 8304,
      "latentforge": 8305,
      "permanent": 8306,
      "symptom": 8307,
      "uplicate": 8308,
      "replacing": 8309,
      "accounting": 8310,
      "intermediate_size": 8311,
      "184352": 8312,
      "26634": 8313,
      "float8_e4m": 8314,
      "registered": 8315,
      "0x7f4ff438ff59": 8316,
      "_STREAM": 8317,
      "flakstad": 8318,
      "^^^^^^^^^^^^^^^^^^^^^^^^^^^^^^^^^^^^^^^^^^^^^^^": 8319,
      "overrides": 8320,
      "prediction": 8321,
      "last_error": 8322,
      "0x7f4ff40e1217": 8323,
      "0x7f4ff40e2b07": 8324,
      "git20260715": 8325,
      "4d62d242": 8326,
      "sampling_rate": 8327,
      "0x00007b4ff": 8328,
      "obingSuper": 8329,
      "observations": 8330,
      "fluent": 8331,
      "skip_if_unlimit": 8332,
      "Compilation": 8333,
      "_run_module_as_main": 8334,
      "0x0000000302c515": 8335,
      "=================================================================": 8336,
      "test_encode_time_invalid": 8337,
      "0x7b4feab4622f": 8338,
      "configuration_glm_moe_dsa": 8339,
      "0x7f4ff43a3467": 8340,
      "0x7f4ff43ae12f": 8341,
      "Documentation": 8342,
      "simplefilter": 8343,
      "generic_wrapped_legacy_": 8344,
      "strictly": 8345,
      "===============================": 8346,
      "0x0000000303bf04": 8347,
      "English_United": 8348,
      "GlmMoeDsaConfig": 8349,
      "Source_": 8350,
      "_PyRun_StringFlagsWithName": 8351,
      "RELEASE_ARM64_T8": 8352,
      "0bc41e": 8353,
      "1861b0255": 8354,
      "2vec2": 8355,
      "38653": 8356,
      "699d5d": 8357,
      "62c8e6d": 8358,
      "7873": 8359,
      "7bcbb6b": 8360,
      "75653076": 8361,
      "7783": 8362,
      "<?,": 8363,
      "Created": 8364,
      "Claude": 8365,
      "C_D_SCAL": 8366,
      "Cryptexes": 8367,
      "DenisVi": 8368,
      "Equal": 8369,
      "EikanWang": 8370,
      "EMSGSIZE": 8371,
      "Frozen_": 8372,
      "Family": 8373,
      "France": 8374,
      "FALSE": 8375,
      "Google": 8376,
      "G_TGT_": 8377,
      "HANDLE": 8378,
      "HUNG": 8379,
      "Idea": 8380,
      "LoneSur": 8381,
      "L595": 8382,
      "LT_MAT": 8383,
      "Mmio": 8384,
      "Meltdown": 8385,
      "MUL_DES": 8386,
      "Offloading": 8387,
      "Prior": 8388,
      "PERF": 8389,
      "PANDAS_C": 8390,
      "Random": 8391,
      "Retbleed": 8392,
      "RAISE": 8393,
      "Small": 8394,
      "Similar": 8395,
      "SAVE_DIR": 8396,
      "Srbds": 8397,
      "SOCK_STREAM": 8398,
      "Tsx": 8399,
      "Tesla": 8400,
      "Tuple": 8401,
      "TensorsConfig": 8402,
      "UNEXPEC": 8403,
      "Volumes": 8404,
      "Vendor": 8405,
      "Writing": 8406,
      "Xeon": 8407,
      "XiaobingSuper": 8408,
      "_trlib": 8409,
      "_csparsetools": 8410,
      "_generator": 8411,
      "_only_symbols": 8412,
      "_ignored_": 8413,
      "_moduleTNC": 8414,
      "_post_convert_dtypes": 8415,
      "_ARG_TGT_": 8416,
      "_perform_spawn": 8417,
      "_runtest_env_chang": 8418,
      "_POSIX_SPA": 8419,
      "_USE_POSIX_SPA": 8420,
      "_Contains_K": 8421,
      "bab118ec759": 8422,
      "clinic": 8423,
      "c28c": 8424,
      "dlopen": 8425,
      "dtherm": 8426,
      "dtes64": 8427,
      "d6574": 8428,
      "fuzz": 8429,
      "fxsr": 8430,
      "fsrm": 8431,
      "f82f8b09": 8432,
      "f_locals": 8433,
      "gesdd": 8434,
      "hproc": 8435,
      "harness": 8436,
      "ivarflakstad": 8437,
      "jgong5": 8438,
      "kulinse": 8439,
      "master": 8440,
      "mirror": 8441,
      "others": 8442,
      "occurred": 8443,
      "pit_b_224": 8444,
      "preterVTable": 8445,
      "prepare": 8446,
      "pulate_env": 8447,
      "physical": 8448,
      "ratio": 8449,
      "svd": 8450,
      "smep": 8451,
      "slice": 8452,
      "sweep": 8453,
      "splits": 8454,
      "sdbg": 8455,
      "tuning": 8456,
      "upper_bound": 8457,
      "vcxproj": 8458,
      "welcome": 8459,
      "wav2vec2": 8460,
      "w_deq": 8461,
      "wikitext": 8462,
      "xtopolog": 8463,
      "xgetbv1": 8464,
      "yields": 8465,
      "zucchini": 8466,
      "inflation": 8467,
      "incurs": 8468,
      "third": 8469,
      "redacted": 8470,
      "pybind11": 8471,
      "enhancement": 8472,
      "isions_consistent": 8473,
      "is_local_in_caller_frame": 8474,
      "arxiv": 8475,
      "ascii": 8476,
      "asheetname": 8477,
      "legitimate": 8478,
      "deliber": 8479,
      "rogateProxy": 8480,
      "unhashable": 8481,
      "unordered_set": 8482,
      "unsloth": 8483,
      "course": 8484,
      "cognitive": 8485,
      "exhaust": 8486,
      "excludes": 8487,
      "meelgroup": 8488,
      "measurements": 8489,
      "nownHash": 8490,
      "0x00016da15": 8491,
      "0xd0e3": 8492,
      "0x2c4": 8493,
      "0x03e90000": 8494,
      "0x87e87aa3ff": 8495,
      "lahf_lm": 8496,
      "Py_RunMain": 8497,
      "PyInterpreterVTable": 8498,
      "PyArray_C": 8499,
      "intel_pt": 8500,
      "libscipy_openblas": 8501,
      "libtorch_cpu": 8502,
      "libtorch_python": 8503,
      "ushopt": 8504,
      "behaves": 8505,
      "beyond": 8506,
      "try_trivial_single_output": 8507,
      "ffn_dim": 8508,
      "tiangolo": 8509,
      "run_single_test": 8510,
      "problems": 8511,
      "provided": 8512,
      "__str__": 8513,
      "__config__": 8514,
      "__iter__": 8515,
      "__get_result": 8516,
      "__hash__": 8517,
      "__len__": 8518,
      "__eq__": 8519,
      "clipmode": 8520,
      "clflushopt": 8521,
      "cldemote": 8522,
      "typically": 8523,
      "Integer": 8524,
      "test_precisions_consistent": 8525,
      "test_python_worker_": 8526,
      "20210514": 8527,
      "101352": 8528,
      "_PyDict_Contains_K": 8529,
      "primarily": 8530,
      "0x7b64519fe": 8531,
      "get_special_tokens_mask": 8532,
      "07f29610a": 8533,
      "str_len": 8534,
      "190006": 8535,
      "190520": 8536,
      "perf_counter": 8537,
      "ed_stack_size": 8538,
      "Moonshine": 8539,
      "RecursionError": 8540,
      "el9_7": 8541,
      "can_cast": 8542,
      "disk_save_repro": 8543,
      "PRO_ON_FAI": 8544,
      "illumos": 8545,
      "collapses": 8546,
      "embedding": 8547,
      "emitted": 8548,
      "acquires": 8549,
      "accumul": 8550,
      "Debian": 8551,
      "configurable": 8552,
      "1d5c699d5d": 8553,
      "recursion_": 8554,
      "websockets": 8555,
      "pdpe1gb": 8556,
      "msaroufim": 8557,
      "boolean": 8558,
      "Control": 8559,
      "ConcretePyInterpreterVTable": 8560,
      "0x0000ffffa9cef02": 8561,
      "dev20260718": 8562,
      "ing_point_errors_in_mat": 8563,
      "ForConditionalGeneration": 8564,
      "deferring": 8565,
      "0x10024c28c": 8566,
      "0x1002462d0": 8567,
      "27b027bcbb6b": 8568,
      "afterwards": 8569,
      "NotImplementedError": 8570,
      "random_poisson": 8571,
      "arch_lbr": 8572,
      "Isalia20": 8573,
      "num_key_value_heads": 8574,
      "_metrics": 8575,
      "convert_tokens_to_": 8576,
      "nonstop_tsc": 8577,
      "CUBLASLT_MAT": 8578,
      "55df7a8": 8579,
      "git220ecc2": 8580,
      "gitf3b38653": 8581,
      "git23b1588": 8582,
      "584834575653076": 8583,
      "voxtral": 8584,
      "flat_hash_map": 8585,
      "StructuredTraceTest": 8586,
      "core_model_loading": 8587,
      "base_compile_flags": 8588,
      "rdtscp": 8589,
      "PY_SUPPORT_TI": 8590,
      "PYD_PLATFORM_TAG": 8591,
      "Android": 8592,
      "Rocketknight1": 8593,
      "SIG_DFL": 8594,
      "ebf955df7a8": 8595,
      "tsxldtrk": 8596,
      "GitVisionConfig": 8597,
      "0x10247f7b0": 8598,
      "ABORTING": 8599,
      "tsc_deadline_timer": 8600,
      "INT_REPRO_ON_FAI": 8601,
      "INT32_MAX": 8602,
      "0x10023ee5c": 8603,
      "0x10023f3a8": 8604,
      "CompressedTensorsConfig": 8605,
      "ENOENT": 8606,
      "TRANSLATING": 8607,
      "Withdrawn": 8608,
      "check_stable_only_symbols": 8609,
      "check_daemon_threads_shutdown_deadlock": 8610,
      "keep_references_alive": 8611,
      "SION_SUFFIXES": 8612,
      "SUMMARY": 8613,
      "_callTestMethod": 8614,
      "binary_populate_env": 8615,
      "cpuid_fault": 8616,
      "cqm_occup_llc": 8617,
      "test_encode_large_int_object": 8618,
      "3dnowprefetch": 8619,
      "multilingual": 8620,
      "multinomial": 8621,
      "o1_eq_o2": 8622,
      "simd_exp_FLOAT": 8623,
      "Qwen3VLForConditionalGeneration": 8624,
      "ASIMDFHM": 8625,
      "O_CLOEXEC": 8626,
      "ignore_floating_point_errors_in_mat": 8627,
      "0x7f4ff43ae4ca": 8628,
      "2fceeef": 8629,
      "_WITH_DYNAMO": 8630,
      "lone_surrogate_dict": 8631,
      "MAP_SHARED": 8632,
      "gather_for_metrics": 8633,
      "synthetic": 8634,
      "avx512_vpopcntdq": 8635,
      "POSITIVE": 8636,
      "BogoMIPS": 8637,
      "_get_metal_kernel": 8638,
      "c0cbdb9": 8639,
      "f62050d6574": 8640,
      "f6df82f9d0": 8641,
      "wbnoinvd": 8642,
      "convert_ids_to_tokens": 8643,
      "AF_INET": 8644,
      "BHI_DIS_S": 8645,
      "EXTENSION_SUFFIXES": 8646,
      "VSCMD_ARG_TGT_": 8647,
      "aperfmperf": 8648,
      "ibrs_enhanced": 8649,
      "trust_remote_code": 8650,
      "shard_state_dict": 8651,
      "test_posix_pty_functions": 8652,
      "ASAN_OPTIONS": 8653,
      "PYTORCH_PRINT_REPRO_ON_FAI": 8654,
      "PYTORCH_TEST_WITH_DYNAMO": 8655,
      "tsc_known_freq": 8656,
      "faulthandler_fatal_error": 8657,
      "float8_e4m3fn": 8658,
      "4d62d242e": 8659,
      "skip_if_unlimited_stack_size": 8660,
      "0x0000000302c51520": 8661,
      "test_encode_time_invalid_subclass": 8662,
      "generic_wrapped_legacy_loop": 8663,
      "0bc41e6": 8664,
      "1861b02551d5c699d5d": 8665,
      "62c8e6dcd17b": 8666,
      "C_D_SCALE_POINTER": 8667,
      "DenisVieriu97": 8668,
      "Frozen_WindowsExtensionSuffixTests": 8669,
      "LoneSurrogateProxy": 8670,
      "MUL_DESC_D_SCALE_POINTER": 8671,
      "UNEXPECTED": 8672,
      "_runtest_env_changed_exc": 8673,
      "_USE_POSIX_SPAWN": 8674,
      "kulinseth": 8675,
      "xtopology": 8676,
      "0x87e87aa3ff897c45": 8677,
      "try_trivial_single_output_loop": 8678,
      "_PyDict_Contains_KnownHash": 8679,
      "0x0000ffffa9cef020": 8680,
      "27b027bcbb6b1861b02551d5c699d5d": 8681,
      "CUBLASLT_MATMUL_DESC_D_SCALE_POINTER": 8682,
      "PY_SUPPORT_TIER": 8683,
      "ignore_floating_point_errors_in_matmul": 8684,
      "VSCMD_ARG_TGT_ARCH": 8685,
      "PYTORCH_PRINT_REPRO_ON_FAILURE": 8686,
      "27b027bcbb6b1861b02551d5c699d5d07f29610a": 8687,
      "!).": 8688,
      "!\"],": 8689,
      "!'))": 8690,
      "\"$": 8691,
      "\";": 8692,
      "\"[": 8693,
      "\"--": 8694,
      "\"\",": 8695,
      "\"',": 8696,
      "\"`.": 8697,
      "\"},": 8698,
      "\"\"],": 8699,
      "\"']": 8700,
      "\"!!!!!!!!": 8701,
      "#-": 8702,
      "#/": 8703,
      "%)": 8704,
      "%**": 8705,
      "&`),": 8706,
      "''": 8707,
      "'<": 8708,
      "'\\": 8709,
      "']`).": 8710,
      "'=================================================================": 8711,
      "'\"!!!!!!!!": 8712,
      "(#": 8713,
      "(<": 8714,
      "(≳": 8715,
      "((\"": 8716,
      ")>": 8717,
      ")[": 8718,
      ")}": 8719,
      ")²": 8720,
      ")):": 8721,
      ")](": 8722,
      ")</": 8723,
      ")\\\\": 8724,
      ")\"]": 8725,
      ")**:": 8726,
      ")}\")": 8727,
      "*)": 8728,
      "*,": 8729,
      "*`": 8730,
      "+/": 8731,
      "+=": 8732,
      "+',": 8733,
      ",\"": 8734,
      ",)": 8735,
      ",*/*": 8736,
      "-**": 8737,
      "-*`": 8738,
      ".*": 8739,
      ".`,": 8740,
      ".]],": 8741,
      ".!'))": 8742,
      "/{": 8743,
      "/')": 8744,
      "/#/": 8745,
      "0a": 8746,
      "0r": 8747,
      "0s": 8748,
      "0æ": 8749,
      "0it": 8750,
      "0be": 8751,
      "016": 8752,
      "0da": 8753,
      "047": 8754,
      "080": 8755,
      "0122": 8756,
      "0fea": 8757,
      "1M": 8758,
      "1x": 8759,
      "1st": 8760,
      "114": 8761,
      "117": 8762,
      "1f4": 8763,
      "1100": 8764,
      "188": 8765,
      "1136": 8766,
      "2L": 8767,
      "2Z": 8768,
      "2m": 8769,
      "2x": 8770,
      "2be": 8771,
      "2fe": 8772,
      "226": 8773,
      "2512": 8774,
      "245": 8775,
      "2LM": 8776,
      "2bc": 8777,
      "2nd": 8778,
      "2a2": 8779,
      "2157": 8780,
      "2Minus1": 8781,
      "21332": 8782,
      "3k": 8783,
      "3s": 8784,
      "3ed": 8785,
      "300": 8786,
      "312": 8787,
      "313": 8788,
      "3f4": 8789,
      "307": 8790,
      "301": 8791,
      "337": 8792,
      "3bc": 8793,
      "384": 8794,
      "3rd": 8795,
      "3d0": 8796,
      "3eb": 8797,
      "3Di": 8798,
      "3e9": 8799,
      "3369": 8800,
      "3151": 8801,
      "3178": 8802,
      "3179": 8803,
      "4A": 8804,
      "400": 8805,
      "464": 8806,
      "401": 8807,
      "432": 8808,
      "447": 8809,
      "4dd": 8810,
      "4ba": 8811,
      "4eb": 8812,
      "44e": 8813,
      "4149": 8814,
      "5a": 8815,
      "5be": 8816,
      "588": 8817,
      "518": 8818,
      "5aa": 8819,
      "526": 8820,
      "5dd": 8821,
      "546": 8822,
      "527": 8823,
      "523": 8824,
      "54d": 8825,
      "572": 8826,
      "534": 8827,
      "576": 8828,
      "539": 8829,
      "543": 8830,
      "5e7": 8831,
      "5408": 8832,
      "5_utils": 8833,
      "5648": 8834,
      "6Z": 8835,
      "619": 8836,
      "601": 8837,
      "630": 8838,
      "6bc": 8839,
      "621": 8840,
      "6At": 8841,
      "633e": 8842,
      "6c0": 8843,
      "6d8": 8844,
      "6e3": 8845,
      "6ecc": 8846,
      "6ubuntu": 8847,
      "73": 8848,
      "75": 8849,
      "7Z": 8850,
      "712": 8851,
      "710": 8852,
      "701": 8853,
      "737": 8854,
      "725": 8855,
      "766": 8856,
      "709": 8857,
      "779": 8858,
      "739": 8859,
      "705": 8860,
      "73a": 8861,
      "744": 8862,
      "708": 8863,
      "7340": 8864,
      "7f9": 8865,
      "7c0": 8866,
      "7db4": 8867,
      "7e8": 8868,
      "7646": 8869,
      "7548": 8870,
      "83": 8871,
      "8_": 8872,
      "8x": 8873,
      "807": 8874,
      "826": 8875,
      "847": 8876,
      "848": 8877,
      "840": 8878,
      "8af": 8879,
      "8116": 8880,
      "8118": 8881,
      "83d": 8882,
      "8480": 8883,
      "820Z": 8884,
      "9a": 8885,
      "9de": 8886,
      "900": 8887,
      "901": 8888,
      "937": 8889,
      "940": 8890,
      "922": 8891,
      "950": 8892,
      "91e": 8893,
      "921": 8894,
      "955": 8895,
      "959": 8896,
      "934": 8897,
      "938": 8898,
      "952": 8899,
      "9d0": 8900,
      "985": 8901,
      "9219": 8902,
      "91Z": 8903,
      "98c": 8904,
      "95Z": 8905,
      "93Z": 8906,
      "9342": 8907,
      ":\"": 8908,
      ":|": 8909,
      ":])": 8910,
      ":]`": 8911,
      "<->": 8912,
      "=/": 8913,
      "=`": 8914,
      "=\"/": 8915,
      "=[\"": 8916,
      ">,": 8917,
      ">-": 8918,
      ">]": 8919,
      ">`,": 8920,
      ">',": 8921,
      ">`.": 8922,
      ">\")": 8923,
      ">)`": 8924,
      ">\\\\": 8925,
      "Aug": 8926,
      "AMP": 8927,
      "Ask": 8928,
      "A_F": 8929,
      "BD": 8930,
      "BJ": 8931,
      "BO": 8932,
      "Bro": 8933,
      "Bus": 8934,
      "Back": 8935,
      "Big": 8936,
      "Batch": 8937,
      "Bool": 8938,
      "Barri": 8939,
      "BERT": 8940,
      "BACKTRAC": 8941,
      "CP": 8942,
      "Cl": 8943,
      "Case": 8944,
      "CAN": 8945,
      "CON": 8946,
      "Cell": 8947,
      "Chun": 8948,
      "CALL": 8949,
      "CTOR": 8950,
      "CE_": 8951,
      "CPP": 8952,
      "CMis": 8953,
      "Center": 8954,
      "C0r": 8955,
      "DX": 8956,
      "Ded": 8957,
      "Dur": 8958,
      "DLL": 8959,
      "DWORD": 8960,
      "Delta": 8961,
      "Duplicate": 8962,
      "ET": 8963,
      "EY": 8964,
      "Emp": 8965,
      "Effect": 8966,
      "EAT": 8967,
      "EBUG": 8968,
      "FM": 8969,
      "FR": 8970,
      "Fin": 8971,
      "Fit": 8972,
      "F16": 8973,
      "Fable": 8974,
      "Float": 8975,
      "Fused": 8976,
      "Fail": 8977,
      "FFS": 8978,
      "Fvv": 8979,
      "Folding": 8980,
      "Gu": 8981,
      "Gro": 8982,
      "Gloo": 8983,
      "Gold": 8984,
      "G_PLATFORM": 8985,
      "HF": 8986,
      "Hy": 8987,
      "Hint": 8988,
      "Hel": 8989,
      "Here": 8990,
      "Head": 8991,
      "H_T": 8992,
      "HES": 8993,
      "HUP": 8994,
      "HAINED_WARNING_DISABLED": 8995,
      "HOW": 8996,
      "Harsh": 8997,
      "IP": 8998,
      "IT": 8999,
      "IV": 9000,
      "Iter": 9001,
      "IMP": 9002,
      "IZE": 9003,
      "IDE": 9004,
      "IMO": 9005,
      "ICE": 9006,
      "Jan": 9007,
      "Json": 9008,
      "KL": 9009,
      "KX": 9010,
      "Kit": 9011,
      "Kub": 9012,
      "Li": 9013,
      "L13": 9014,
      "Lay": 9015,
      "LOS": 9016,
      "L22": 9017,
      "Long": 9018,
      "L58": 9019,
      "L24": 9020,
      "L56": 9021,
      "L79": 9022,
      "L488": 9023,
      "L126": 9024,
      "LTS": 9025,
      "Llama": 9026,
      "L98": 9027,
      "L225": 9028,
      "L519": 9029,
      "LPD": 9030,
      "Luc": 9031,
      "Lstsq": 9032,
      "L518": 9033,
      "L779": 9034,
      "MB": 9035,
      "Ms": 9036,
      "Mar": 9037,
      "Mig": 9038,
      "Match": 9039,
      "Must": 9040,
      "Mismatch": 9041,
      "Many": 9042,
      "Mach": 9043,
      "Mech": 9044,
      "MT5": 9045,
      "MCP": 9046,
      "NL": 9047,
      "NT": 9048,
      "NX": 9049,
      "Non": 9050,
      "Nor": 9051,
      "Npy": 9052,
      "Null": 9053,
      "Native": 9054,
      "Op": 9055,
      "Our": 9056,
      "OPY": 9057,
      "OUN": 9058,
      "O_RE": 9059,
      "OBJ": 9060,
      "Pi": 9061,
      "Par": 9062,
      "Pse": 9063,
      "Port": 9064,
      "Prun": 9065,
      "Pol": 9066,
      "Pass": 9067,
      "Pure": 9068,
      "Prec": 9069,
      "Pool": 9070,
[...]
